#version: 0.2
e n</w>
e r
i n
t h
c h
e n
e r</w>
a n
u n
t i
th e</w>
r e
s t
d i
a r
o n
o n</w>
l i
o r
e i
e s</w>
a l
r o
c h</w>
s i
i n</w>
e l
e s
d er</w>
i s
an d</w>
a u
a t
o f</w>
w i
e in
t o</w>
un d</w>
di e</w>
e d</w>
i s</w>
o m
a s</w>
in g</w>
r a
o u
d en</w>
r i
s ch
b e
a t</w>
d e
g e
a n</w>
a ti
a s
o r</w>
un g</w>
i t
u r
t en</w>
t e</w>
g en</w>
a l</w>
o l
a b
v er
a m
u s
l e
t er
p o
en t</w>
en t
l e</w>
i t</w>
d er
t e
p ro
v e</w>
i e</w>
e h
f ü
a c
g e</w>
T h
l y</w>
s p
e c
v i
i ch
q u
d e</w>
z u</w>
n o
e t
th at</w>
ch en</w>
e m
h i
h r
f or</w>
f f
l o
om m
v on</w>
ati on</w>
t h</w>
ti on</w>
s u
c on
is t</w>
n e
i l
w er
c e</w>
o t
f or
s e</w>
fü r</w>
ar e</w>
z u
ein e</w>
o p
ro p
a r</w>
m a
h a
g en
d es</w>
u rop
t s</w>
po s
c i
u l
b e</w>
g i
m it</w>
au f</w>
S t
b er
ei n</w>
s t</w>
V er
ei t</w>
wi th</w>
d as</w>
Th e</w>
e m</w>
b er</w>
ch e</w>
el l
E urop
a d
i m
ati on
e x
u t
ich t</w>
s er
di es
l a
un gen</w>
U n
d u
I n
ou r</w>
d a
r u
ti on
s o</w>
t er</w>
c k
c o
f i
t a
si on</w>
li ch</w>
p or
a h
de m</w>
c om
an d
s h
th is</w>
i m</w>
n en</w>
i e
w h
l l</w>
w or
a g
m o
a f
A n
s e
S ie</w>
l d</w>
a pos
& apos
wi r
as s</w>
o u</w>
s en</w>
w ei
z i
u m</w>
u m
n icht</w>
ä n
R e
g h
no t</w>
al l</w>
a p
qu ot
t u
wer den</w>
in d</w>
b y</w>
r an
quot ;</w>
& quot;</w>
w e</w>
un g
s o
er e</w>
at e</w>
w e
d en
ha ve</w>
d ass</w>
t ra
si ch</w>
D ie</w>
li e
al s</w>
k e</w>
p ar
g es
m ent</w>
y ou</w>
p er
ti m
p re
w hi
a li
wi r</w>
is chen</w>
b u
ou ld</w>
wi ll</w>
w as</w>
in g
a ch
al l
m en</w>
au ch</w>
i r
ro m</w>
S ch
h o
omm is
whi ch</w>
i ch</w>
e b
ung s
B e
au s
d o
t y</w>
f rom</w>
m e
a ch</w>
P ro
er s</w>
2 0
t z
P ar
h ab
s ind</w>
l u
ent s</w>
ch t</w>
t s
E n
th er</w>
ein er</w>
r ä
w en
d s</w>
wir d</w>
s ol
t o
l ei
b es
f in
ein en</w>
A u
ü ber</w>
h al
h as</w>
g t</w>
p l
wi e</w>
e st
ur e</w>
ö n
sch af
i c
a hr
ou t</w>
ter n
g an
u r</w>
s a
es s</w>
ab le</w>
on e</w>
po li
b ei
au s</w>
st en</w>
i li
ge b
i g
st ell
for m
ü r
I n</w>
c an</w>
A r
ommis sion</w>
te l</w>
o o
v er</w>
B er
e l</w>
er t</w>
o der</w>
ou r
t en
i r</w>
et z
e an</w>
be i</w>
g ra
h at</w>
v or
E r
D i
m an
s ti
g u
eh r</w>
a k
u s</w>
a m</w>
e t</w>
hab en</w>
li ch
al so</w>
k an
ä r
p e
H er
&apos ;
al ly</w>
t ed</w>
un d
t ri
si d
d ur
er en</w>
e u
Europ ean</w>
us t</w>
m e</w>
g r
A us
s en
s el
er n</w>
20 0
re c
w el
E in
g el
li chen</w>
m en
sch en</w>
i on</w>
at ed</w>
k ön
H o
au f
it y</w>
w a
ti c
an t</w>
si e</w>
m ö
j e
or e</w>
e y</w>
l en</w>
&apos ;</w>
es e</w>
it s</w>
e p
ar k
l in
m in
tion s</w>
o h
sid ent</w>
te t</w>
g ro
com p
zu r</w>
M it
d ar
P re
en d</w>
der n</w>
st a
du c
g er
D as</w>
ein em</w>
gh t</w>
A l
por t</w>
co un
t r
g re
si on
w ur
f re
at es</w>
w ar
Un ion</w>
y st
y our</w>
un ser
ü n
ation s</w>
f t</w>
ti ve</w>
o ff
&apos; s</w>
ver y</w>
re s</w>
d ing</w>
a ge</w>
A b
er ung</w>
t ung</w>
I ch</w>
o b
at en</w>
m er</w>
kön nen</w>
k en</w>
is che</w>
li che</w>
es t</w>
es s
be t
W e</w>
ch n
c es</w>
m ore</w>
c k</w>
k eit</w>
bu t</w>
k t</w>
k ing</w>
f ol
V or
ge h
in c
an der
st r
1 9
z ei
as t</w>
an ce</w>
ar y</w>
F ra
v el
p ri
b r
u p</w>
ch ti
v o
f er
ou s</w>
ti es</w>
ei r</w>
w ould</w>
in ter
am ent</w>
c omm
v en</w>
ch te</w>
S p
i hr
g er</w>
pre s
l an
b o
ö r
th eir</w>
g n
fü hr
m it
p p
s sen</w>
0 0</w>
s on
k omm
c y</w>
En t
t ing</w>
n ach</w>
ar i
u b
h er
be en</w>
M a
h in
st e</w>
& #
eh en</w>
Th is</w>
t ei
am p
un s</w>
t re
zu m</w>
I t</w>
W ir</w>
Europ ä
st ri
dies e</w>
ü ber
g h</w>
n e</w>
. .
g o
dur ch</w>
n ur</w>
e ar
G es
f ac
w n</w>
por t
i el
v or</w>
m an</w>
o ther</w>
sp ec
K on
e g
v ol
as e</w>
di s
ne u
sh ould</w>
kan n</w>
m p
a d</w>
i h
b en</w>
b le</w>
M r</w>
D er</w>
t ro
b t</w>
a re
st ru
am e</w>
b le
p r
k l
un ter
z w
d o</w>
d ed</w>
an y</w>
f en</w>
m ü
t el
si ch
i c</w>
ei ten</w>
k s</w>
h e</w>
G r
t w
schaf t</w>
k on
dies er</w>
no ch</w>
em ber</w>
or d
a v
ac c
i st
f u
P rä
E s</w>
C ommission</w>
s om
s ec
.. .</w>
w ä
b i
as s
m ust</w>
en ce</w>
m on
f e
us s</w>
en s</w>
sch e</w>
en s
m u
ü ck
G e
tim e</w>
ation al</w>
is e</w>
t ä
er i
&# 9
d an
h eit</w>
da y</w>
m ark
v es</w>
al e</w>
l ä
or t</w>
da ß</w>
th ey</w>
C o
K ommission</w>
l t</w>
ne w</w>
th ere</w>
s yst
st at
ol o
m ents</w>
n ah
or i
li ke</w>
ci al</w>
wur de</w>
on ly</w>
g ung</w>
gra m
en d
ges ch
ing s</w>
l ung</w>
e ff
E U</w>
Ho tel</w>
b en
no w</w>
f o
ut z
ar d</w>
ab er</w>
in n
wi ck
j ec
c re
ab out</w>
P o
h e
t n
el t</w>
pro duc
ge m
F or
l and</w>
s ein</w>
t ran
al en</w>
poli ti
Her r</w>
I h
wor k</w>
wen n</w>
eh men</w>
fi r
im mer</w>
ri t
m s</w>
y s</w>
in e</w>
s ehr</w>
Pre sident</w>
an n
mü ssen</w>
in tern
D e
eh r
c ri
ü tz
u t</w>
de t</w>
w s</w>
an t
al le</w>
el y</w>
le g
Au f
wa y</w>
Mit g
tim m
ein es</w>
qu i
v en
er n
re s
th ese</w>
sp e
J ahr
d ung</w>
Par l
Z u
ub li
ac e</w>
ra l</w>
b a
f ahr
w ar</w>
m ehr</w>
th o
ch an
m er
con c
au se</w>
wh o</w>
ber ei
us am
en den</w>
for e</w>
p le
r on
po si
n o</w>
on der
re d</w>
wi th
or s</w>
is ch
dies em</w>
m i
su p
v ed</w>
de vel
S o
re gi
I hr
wei ter
mo st</w>
a ff
con t
i f</w>
t ur
Re gi
ser vi
M en
ati ve</w>
man y</w>
di es</w>
op le</w>
re ich
Mitg lie
U m
th er
ili ty</w>
re g
pro vi
f ra
an s</w>
h and
komm en</w>
oo d</w>
s etz
re l
mö g
ne t</w>
d r
su b
h ei
in form
im port
st eh
un der
ß en</w>
k te</w>
i d</w>
on g</w>
sti tu
on om
wer e</w>
vi e
g lei
Europä ischen</w>
d es
com e</w>
C h
Europ e</w>
h er</w>
li ament</w>
B es
g es</w>
sol l
u p
el le</w>
w is
us e</w>
f e</w>
lo c
in to</w>
pe ople</w>
r e</w>
pro c
em ent</w>
su ch</w>
ar bei
g keit</w>
d a</w>
Par liament</w>
b is</w>
l as
l au
op er
sch ie
ation en</w>
at ing</w>
ä l
v ing</w>
a st
em p
h el
Un ter
m y</w>
wh at</w>
si ble</w>
devel op
C on
ri e
n i
ro u
e urop
re ch
mö chte</w>
p ubli
fu l</w>
st än
ti gen</w>
G er
t es</w>
di ff
p h
M e
c ent
vi el
in i
do ch</w>
li c
te chn
hal ten</w>
c tion</w>
tri es</w>
z en</w>
un ter</w>
l ar
th an</w>
St ates</w>
p a
st ütz
il li
o m</w>
wi chti
spec i
ti g</w>
m at
c c
1 0</w>
d am
it e</w>
stell en</w>
coun tries</w>
re port</w>
i l</w>
usam men
In ter
M o
en n
c le
inc lu
M ember</w>
s er</w>
e -
vo m</w>
tion en</w>
gi bt</w>
un i
a il
be c
Co un
ne ed</w>
st and
w oh
re i
ihr e</w>
wh en</w>
ag a
ec onom
b ie
europ ä
en de</w>
h is</w>
Ü ber
po in
or y</w>
l at
som e</w>
f un
b re
Mitglie d
Prä sident</w>
ell en</w>
si gn
wel l</w>
b ar
B ei
geb en</w>
k ti
in u
si s</w>
ci l</w>
s ch</w>
etz t</w>
ho tel</w>
fir st</w>
di rec
z e</w>
so wie</w>
el s</w>
l es</w>
tic al</w>
ge t</w>
dies es</w>
w er</w>
de ut
c ol
m ent
O r
sh o
L i
an k</w>
sch lie
ma ke</w>
th em</w>
Coun cil</w>
ag re
ap p
zw ischen</w>
ver n
ac k
stell t</w>
in s</w>
we en</w>
import ant</w>
at eg
bes onder
f ul
for m</w>
t or</w>
s k
h ere</w>
th ing</w>
st ar
gh ts</w>
C omm
en g
bet ween</w>
el l</w>
i en</w>
hal b</w>
syst em</w>
Q u
b eit</w>
den en</w>
ali ty</w>
Ent wick
am en</w>
ein g</w>
ta ke</w>
ex c
j o
hi er</w>
r ü
ra ti
tä t</w>
per i
ac k</w>
pro pos
o ver</w>
ch ten</w>
ex p
t schaf
pro ble
for der
b in
e v
Mitglied sta
er g
bec ause</w>
i de
olo g
wh ere</w>
c ul
l er</w>
Ar bei
e d
s ame</w>
h en</w>
b ar</w>
ie l</w>
P er
m uss</w>
en ti
o k
fin an
n t</w>
y p
st e
w ür
en n</w>
m is
n at
ear s</w>
y e
Ber icht</w>
J ah
eb en</w>
wi e
k eine</w>
i es</w>
n ec
unser e</w>
z ah
H au
sp on
t ure</w>
w al
ge gen</w>
ä ch
o s</w>
s s</w>
re as
j ust</w>
F in
19 9
fi c
ß e</w>
E x
st s</w>
sion s</w>
ma de</w>
in di
c u
Ber ei
inform ation</w>
Ih nen</w>
Parl ament</w>
s es</w>
y ing</w>
k o
pro gram
or gan
on s</w>
t lich</w>
r is
st er</w>
i ge</w>
y ears</w>
S er
si den
ö ff
s hi
fin den</w>
c an
S e
or der</w>
s at
I f</w>
K o
x t</w>
ha d</w>
z eu
M on
L än
f a
si ve</w>
sup port</w>
eu te</w>
th rou
Ges ch
r en
Pro du
sol u
s m
it ä
Mitgliedsta aten</w>
me di
un den</w>
k tion</w>
ander en</w>
In form
p f
aus ge
is su
steh t</w>
ä tz
l än
er te</w>
tw o</w>
s c
1 ;</w>
&#9 1;</w>
l l
F re
n um
re ad
3 ;</w>
&#9 3;</w>
re spon
Pro ble
wei se</w>
f ten</w>
wor ld</w>
wir k
le tz
ri ght</w>
tho se</w>
we ver</w>
ul ar</w>
f ri
wä hr
W ir
tion al</w>
si te</w>
et s</w>
lich keit</w>
k eiten</w>
W enn</w>
Z usammen
M ar
Europ a</w>
schlie ß
tr y</w>
ä u
ta in</w>
tra g</w>
be g
en en</w>
an ge
b eing</w>
r au
el e
lo w
poli cy</w>
ap pro
dan n</w>
N o
ti ge</w>
n ung</w>
un ity</w>
sch ei
g a
lin e</w>
W ei
om s</w>
an g</w>
lo b
c al</w>
Vor sch
con si
il l
par tic
I m</w>
T e
be lie
m al</w>
c lo
c ar
f all
p la
k e
u n</w>
n ach
st ehen</w>
ent ly</w>
B et
N ach
ma y</w>
dies en</w>
E U
d at
ß er
ä f
nah men</w>
g ab
diff er
em s</w>
lo w</w>
pl ace</w>
dam it</w>
s ur
e ven</w>
le v
wur den</w>
g s</w>
B u
c ur
ter s</w>
U S
se e</w>
de ci
G ro
ge ment</w>
at er</w>
e fore</w>
si tu
R o
c our
us ed</w>
N e
de mo
ro om</w>
Di ese</w>
g ood</w>
1 2
u ri
in v
vie w</w>
u res</w>
pos sible</w>
c er
st ra
St a
gem ein
la ge</w>
T ei
f f</w>
h um
s ed</w>
te e</w>
st au
ä h
Fra u</w>
om p
ye ar</w>
st and</w>
lo o
th en</w>
Z eit</w>
ich t
h ol
ec t</w>
are a</w>
as ed</w>
par t</w>
n is
es ti
i ce</w>
w är
ou gh</w>
Po li
un kt</w>
an ti
woh l</w>
ä hr
K ol
B ür
ac t</w>
ho w</w>
Ihr e</w>
ch ar
g ar
unser er</w>
G eb
Un tern
gen er
jec t</w>
ar ly</w>
qu es
f ur
ta in
comp le
G en
ff en</w>
o wn</w>
s ei
f as
us in
bes ch
i er
hab e</w>
t ungen</w>
gen en</w>
re su
publi c</w>
b il
Y ou</w>
sp iel
st er
s eine</w>
pro te
Her r
li ck</w>
G em
mark et</w>
je doch</w>
w n
T a
s h</w>
t ly</w>
throu gh</w>
h ar
a u</w>
son dern</w>
S u
al le
c or
le gen</w>
de l</w>
S ich
af ter</w>
F ü
al u
d ra
in ce</w>
in du
Europä ische</w>
W e
M in
hi gh
a ir
ou se</w>
f am
i a</w>
S yst
neu e</w>
A s</w>
i gen</w>
econom ic</w>
k un
ci p
M ark
poli tical</w>
h ö
in k</w>
amp ;</w>
& amp;</w>
p er</w>
ol l
el n</w>
B o
g ent
f t
Men schen</w>
h eute</w>
et t
Th ere</w>
s or
er k
p ra
et y</w>
c ould</w>
tran s
stau ran
st o
0 00</w>
br au
F ran
ag es</w>
B il
ge gen
t lichen</w>
gel e
Jah r</w>
ö s
stru c
stän di
in gen</w>
ic al</w>
f l
de b
F or</w>
k t
fahr en</w>
sch n
develop ment</w>
ommis sion
w ant</w>
ri ch
Ä n
R ei
si de</w>
qu e</w>
st u
with in</w>
p s</w>
ter n</w>
sel b
in st</w>
un der</w>
read y</w>
bes ser
av ail
n te</w>
mit tel
be d
ou s
Pro gram
berei ts</w>
si b
g ri
W or
geh en</w>
on en</w>
L ei
bu il
unter stütz
tran sp
europä ischen</w>
2 0</w>
D at
ri ghts</w>
go vern
hi st
en z
in s
geh t</w>
las sen</w>
i z
ö l
Sich er
Än der
t able</w>
we i</w>
es en</w>
en z</w>
bo th</w>
ß nahmen</w>
th re
Gr und
pr in
per son
st an
omm en</w>
aga inst</w>
ab ility</w>
el d</w>
f ind</w>
m ich</w>
coun try</w>
soll te</w>
ge w
mu ch</w>
ti k
ch er</w>
5 0</w>
intern ational</w>
c ap
en th
ther efore</w>
t om
Jahr en</w>
k tion
ihr er</w>
neu en</w>
oh ne</w>
ou t
führ t</w>
er ten</w>
ad t</w>
se t</w>
b ur
n er</w>
M ö
s on</w>
poin t</w>
C hin
ber s</w>
lie gt</w>
l and
c t</w>
vi ron
Gem ein
do es</w>
ander e</w>
gr ö
d re
h än
ver schie
lich er</w>
S it
st re
Z ei
v ari
g lich</w>
servi ce</w>
öff ent
g o</w>
P ri
d ri
cont inu
politi k</w>
la g</w>
f il
ne e
Fin an
ti c</w>
p en
qu ality</w>
M an
f le
L u
T ra
so ci
k no
R at</w>
ation alen</w>
R i
z wei</w>
with out</w>
gan z</w>
ma chen</w>
dur ch
wir tschaf
soll ten</w>
bie tet</w>
Entwick lung</w>
der s</w>
cle ar</w>
it ed</w>
T o
stell ung</w>
me as
fre e</w>
reich en</w>
Fra ge</w>
in stitu
L o
Bes ch
be wer
ar ds</w>
l ast</w>
b el
servi ces</w>
In tern
ol d</w>
num ber</w>
B ar
gre at</w>
all en</w>
oper ation</w>
St r
k ten</w>
Re ch
al o
sti ll</w>
g lob
de m
wa ys</w>
ant wor
om e</w>
it tee</w>
avail able</w>
t liche</w>
Ber ich
f est
d ru
te m
posi tion</w>
p i
k re
in nen</w>
b usin
c ed</w>
ro oms</w>
re qui
l a</w>
3 0</w>
f ut
M it</w>
s ehen</w>
differ ent</w>
ru pp
k es</w>
lei st
fac t</w>
sa y</w>
z us
D ur
chan ge</w>
fin det</w>
z ur
as si
at te</w>
olo gi
cur r
st al
führ en</w>
so cial</w>
ent sp
t t
sel f</w>
sat z</w>
el ec
viel e</w>
c ity</w>
besonder e</w>
l ungen</w>
cu st
su m
E in</w>
ck en</w>
l ess</w>
est s</w>
en e</w>
pres ent
W eb
Mö g
h ä
e f
z ent
vi du
di tion</w>
A m
s y
z wei
f ast</w>
f tw
la gen</w>
pri v
cour se</w>
si cht</w>
shi p</w>
li m
en viron
W elt</w>
ftw are</w>
Di es
ein f
al ready</w>
ul ation</w>
conc ern
i ci
Untern ehmen</w>
it al</w>
am ent
ra tion</w>
T er
tu ral</w>
l ungs
k ur
sich er
emp lo
R us
b oo
be fore</w>
n ehmen</w>
fut ure</w>
belie ve</w>
da zu</w>
D a
to o</w>
D o
in ten
ali si
d y</w>
Th at</w>
al t</w>
en st
m ei
s s
ut es</w>
ent wick
k now</w>
solu tion</w>
wä h
m ar
fi ed</w>
wei l</w>
to day</w>
at s
N or
b ri
K in
in te
ti al</w>
j etzt</w>
i g</w>
g n</w>
wie der</w>
on d</w>
D es
ep t</w>
produc ts</w>
b al
h op
au th
l ed</w>
Th em
z eit</w>
e ver
con tro
t al
kl är
ma in</w>
w o</w>
C ommission
l er
B ut</w>
gan g</w>
grö ß
den n</w>
R ah
h in</w>
amp le</w>
s einer</w>
su cc
ol len</w>
can not</w>
p rä
c ase</w>
som e
lev el</w>
T ran
r y</w>
uri ty</w>
D em
f er</w>
th ink</w>
v alu
Inform ationen</w>
L age</w>
200 9</w>
s am
o ver
eff ec
D is
zi eh
ali tät</w>
ra p
t schaft</w>
dar auf</w>
ti z
s af
I s
proc ess</w>
B a
no v
T re
Berei ch</w>
dat a</w>
ac ti
ge stellt</w>
w in
im m
nah me</w>
gen ommen</w>
off ers</w>
t yp
H and
indi vidu
se ar
Ser vi
ar beit</w>
ein ige</w>
p ut</w>
n ten</w>
tr au
c ra
a b</w>
t rä
H in
Ma ßnahmen</w>
n am
sch on</w>
isch er</w>
da für</w>
at ely</w>
em ents</w>
at e
ad v
is m</w>
S a
ges am
ma cht</w>
ful ly</w>
so zi
t ors</w>
fall s</w>
selb st</w>
eb en
sch en
M i
hei ts
W i
sa gen</w>
p ur
itä t</w>
k er</w>
p ec
en te</w>
d res
im pro
a gement</w>
em bers</w>
lu g
ma j
hum an</w>
th e
n ational</w>
S o</w>
wen di
erg y</w>
t sch
Commission er</w>
St and
im ple
ommis s
min ist
glei ch
m ir</w>
situ ation</w>
tra gen</w>
dur ing</w>
co m</w>
St ra
cust om
sp ra
Me di
ti k</w>
o b</w>
st är
mög lich</w>
si gn</w>
pro f
l ü
finan cial</w>
k ed</w>
re spec
vi el</w>
f äl
ch il
- S
c all
ihr en</w>
Jahr e</w>
ih r</w>
z el
bes t</w>
v e
K ommiss
vel y</w>
in ing</w>
n ing</w>
s ing</w>
n or
si c</w>
n is</w>
Herr n</w>
b ro
ili t
zei ch
hi gh</w>
P al
a de</w>
bu d
b in</w>
or en</w>
y -
et er</w>
gen d</w>
pe ti
1 8
issu e</w>
i er</w>
ver si
Ein e</w>
Di es</w>
ex peri
sa id</w>
ex ample</w>
k a</w>
ach ie
Ar beit</w>
pro du
ab li
deb ate</w>
ah l</w>
b it
Aus sch
1 0
ur o</w>
ver k
alle m</w>
me ans</w>
m ul
e very</w>
is ch</w>
si mp
ge t
w an
sm all</w>
app lic
H ot
ver fü
y ment</w>
kun ft</w>
1 5</w>
dis c
ques tion</w>
s si
b an
wür de</w>
ti g
R es
O ur</w>
G u
W el
gu t</w>
inclu ding</w>
m eine</w>
is h</w>
s timm
gen den</w>
wor den</w>
propos al</w>
con di
Arbei ts
s ince</w>
Ho wever</w>
st en
hel p</w>
A ll</w>
w ollen</w>
is l
fi c</w>
t sp
busin ess</w>
L and</w>
unser en</w>
th ough</w>
d el
F ir
is ti
b ased</w>
V i
es sen
nec ess
de u
a z
e ach</w>
ü h
ar t
on -
t ru
g ed</w>
Ver ein
te xt</w>
Fü r</w>
L and
o l</w>
illi on</w>
am ents</w>
or ity</w>
S te
Per son
war d</w>
ta ken</w>
N at
c l
acc ess</w>
m m
leg al</w>
c um
off er</w>
z un
k om
l ong</w>
ation s
in st
ig er</w>
de fin
b ack</w>
es sen</w>
olog y</w>
ti n</w>
m or
proble m</w>
al y
s se</w>
ä hi
par tn
S ei
vi si
ac tion</w>
Un d</w>
Hau sh
Chin a</w>
k ün
L ös
ci tiz
t -
Te chn
Pro je
u al</w>
ten s</w>
di g
ad op
bes timm
us e
De ut
Z immer</w>
A ut
br ingen</w>
et was</w>
g ar</w>
en ces</w>
bie ten</w>
währ end</w>
ili ties</w>
lich keiten</w>
J u
ar t</w>
col le
al th</w>
x i
partic ular</w>
o d</w>
Län der</w>
al er</w>
n un</w>
ar o
W ie</w>
f eh
tu r</w>
re qu
re m</w>
setz ung</w>
G re
ac coun
war en</w>
di re
i ly</w>
sear ch</w>
Rech ts
are as</w>
v ot
it h</w>
U r
ever y
gi ve</w>
ne xt</w>
se l</w>
fe w</w>
d ings</w>
stauran t</w>
aff en</w>
Unter stütz
B eh
spe zi
meas ures</w>
L e
loc ated</w>
de li
comm on</w>
is ed</w>
er fol
whi le</w>
w ach
provi de</w>
agre ement</w>
C ent
sp re
in de
g s
str y</w>
rec ei
Comm ittee</w>
1 2</w>
der ung</w>
er gi
pres ent</w>
ch es</w>
ver wen
p as
ol e</w>
EU -
sch ein
l on
ci es</w>
geh ör
s eit</w>
K om
M u
g ing</w>
en ergy</w>
er halten</w>
necess ary</w>
fo re
s ure</w>
hist or
ie t</w>
k tionen</w>
por ts</w>
O n</w>
al ten</w>
citiz ens</w>
est abli
us ing</w>
20 10</w>
ut z</w>
ß t</w>
lar ge</w>
M r
F un
ins besondere</w>
be gr
ür lich</w>
z ü
d ungen</w>
Ver fü
sch ri
ges etzt</w>
Be d
. com</w>
ens ure</w>
p unkt</w>
lin ie</w>
op p
comp any</w>
a k</w>
sib ility</w>
m a</w>
M ad
P or
ver b
inc reas
po p
aga in</w>
k ey</w>
f ar</w>
12 4
syst ems</w>
li cht</w>
u e</w>
tra di
v öl
L a
nis se</w>
all er</w>
Um wel
e qui
Änder ungs
E u
geb o
lo s</w>
hi l
St u
as k</w>
n et
E -
no t
f an
H il
f und
au tom
er ungs
t ungs
thre e</w>
ord nung</w>
m ä
Unterstütz ung</w>
er sten</w>
om en</w>
R icht
sch er</w>
low ing</w>
mo der
wh e
W in
124 ;</w>
&# 124;</w>
Rah men</w>
ti eren</w>
fur ther</w>
Ar t</w>
si a</w>
proble ms</w>
w es
sec urity</w>
vol l
w o
f te</w>
op port
comp an
d ate</w>
arbei ten</w>
i eren</w>
ul arly</w>
ie der
Län dern</w>
li fe</w>
j u
tro l
ä m
et ing</w>
T ur
h eiten</w>
Hau p
vo te</w>
at s</w>
Inter net</w>
A mer
de st
Zusammen arbeit</w>
com peti
d ge</w>
politi schen</w>
Men schen
se qu
Parl aments</w>
200 8</w>
ass ung</w>
at t
Tei l</w>
B el
lei ch
pra c
d u</w>
setz en</w>
gro w
bei m</w>
wh y</w>
i zi
c ou
Amer ic
ag t</w>
O n
gi ven</w>
B r
ho wever</w>
le a
sh all</w>
utz en</w>
h ear
D ar
si chti
z o
sta y</w>
be steht</w>
ul es</w>
G ar
V ol
consi der
c a</w>
T o</w>
in vol
ob jec
L eb
e k</w>
F all</w>
un de</w>
sol l</w>
F ol
Vorsch lag</w>
W ith</w>
D eb
ti l</w>
con su
is h
Un i
z ep
war ds</w>
gr und</w>
d -
di d</w>
con nec
ti ce</w>
en nen</w>
O b
lo ssen</w>
Pro z
ge ther</w>
Th ey</w>
n ess</w>
co operation</w>
zu g</w>
tu n</w>
c a
einf ach</w>
Ver k
ri chti
ch o
En g
gro up</w>
t z</w>
y er</w>
nee ds</w>
es sion
1 .
ru m</w>
h au
b lei
vie ws</w>
si tz
is m
Be i</w>
sa m</w>
li ght</w>
al ways</w>
wis sen</w>
ous ly</w>
I N
l us
B en
Bür ger</w>
K ar
at ten
re al</w>
ven tion</w>
der t</w>
do wn</w>
Gesch äf
A t</w>
am end
ha pp
St adt</w>
our s</w>
gen de</w>
führ ung</w>
gab e</w>
Gro up</w>
A f
An d</w>
str ateg
s einen</w>
L an
leg isl
i ert</w>
la w</w>
Fra gen</w>
wichti g</w>
M illi
be kan
O p
W ar
en ten</w>
g lau
S k
j a</w>
Or gan
pl an
in e
der en</w>
An wen
Proble m</w>
m ehr
d lich</w>
dre i</w>
Syst em</w>
ein mal</w>
Par tn
hop e</w>
wär e</w>
pl ac
US A</w>
Un ited</w>
Z iel</w>
mat eri
letz ten</w>
wor king</w>
ini ti
den ti
ma in
tei l</w>
N amen</w>
as es</w>
F am
imple ment
dar f</w>
r ise</w>
da bei</w>
G i
dr en</w>
produc tion</w>
is ation</w>
b au
k m</w>
f ung</w>
bet ter</w>
wel che</w>
d i</w>
0 0
Prä siden
sp iel</w>
st ance</w>
cul tural</w>
Ent schei
schaf ten</w>
re co
ess es</w>
Wir tschaf
im p
par ti
K re
ett bewer
ti ert</w>
w w
gu ar
or ts</w>
tim es</w>
da ys</w>
W hat</w>
indu stri
r in
ter stat
aro und</w>
Z iel
ent fer
por te
se ver
ap pe
d ly</w>
ge führt</w>
gen heit</w>
S ec
H ouse</w>
T ex
Kol legen</w>
be tri
tre ten</w>
V iel
th em
e p</w>
hal f</w>
gab en</w>
zei gt</w>
ä mp
R u
W oh
B i
gro ße</w>
f lo
es se</w>
fer ence</w>
In stitu
t on</w>
r än
p ack
po wer</w>
li ed</w>
gro ßen</w>
y ed</w>
G o
Be deut
M ein
en jo
Sp iel
we b
prote ction</w>
ol le</w>
A d
D aten</w>
to gether</w>
ma king</w>
s ing
sp ar
W er
l ing</w>
W as</w>
g ern</w>
komm t</w>
pl at
ü ck</w>
Re cht</w>
1 1</w>
Au f</w>
hän gi
Verfü gung</w>
for t
ing ungen</w>
I ra
wei ter</w>
s ha
pr ü
resu l
Haush al
str eng
re chte</w>
Er geb
E r</w>
program me</w>
ein zi
Ih r</w>
o cc
K ri
ex tre
inn er
in es</w>
t t</w>
m es</w>
for t</w>
curr ent</w>
ment al</w>
F o
de ta
th ir
our ces</w>
O ff
speci al</w>
ful l</w>
i ma
Sei te</w>
Bedeut ung</w>
Th ese</w>
Comm unity</w>
be come</w>
E R
tei l
f ör
st ed</w>
li n</w>
e i</w>
ur y</w>
ic ul
Finan z
or ig
st ä
A ber</w>
U S</w>
regi on
Sicher heit</w>
li g
en zen</w>
zur ück
E ben
Au ch</w>
En ergi
W hen</w>
cent re</w>
un ic
in a</w>
t te</w>
ter ms</w>
Sit u
Gen er
k ra
o gra
Mög lichkeit</w>
diff icul
whe ther</w>
tra de</w>
partic ularly</w>
op en</w>
go ing</w>
disc us
l ab
an other</w>
r or
h r</w>
m et
ori ties</w>
h an
ran ge</w>
k ri
n äch
tra c
p age</w>
au ßer
th s</w>
ei genen</w>
glei ch</w>
f ähi
W o
rü h
chil dren</w>
gro ß
ab o
st ate</w>
loc ation</w>
comm it
af f</w>
N ach</w>
man agement</w>
er mög
C O
F ahr
ff e</w>
su pp
ser v
resu lt</w>
ba sis</w>
loo k</w>
Fra ktion</w>
hand elt</w>
Regi erung</w>
i ti
gen e</w>
F lug
Al s</w>
con tri
rap porte
not wendi
w are</w>
ti gt</w>
f ar
x im
v al</w>
Berich terstat
1 00</w>
Z ent
Sta aten</w>
Mr s</w>
mu ß</w>
cer tain</w>
F rau
H e
regi on</w>
L ie
T i
t ot
r a</w>
ex pres
ad dres
d lichen</w>
ig n</w>
G ä
condi tions</w>
P lat
200 7</w>
h and</w>
at or</w>
schließ lich</w>
Them a</w>
ar ch
issu es</w>
z er
ch en
er forder
t an
da von</w>
kön nte</w>
w ahr
wor k
all es</w>
at h</w>
ell schaft</w>
da her</w>
al es</w>
be l</w>
b or
Proble me</w>
Mit tel
i fic
pf lich
gre i
compan ies</w>
ut er</w>
E le
w eit</w>
gre ss</w>
k ein</w>
ent schei
lo s
es pec
In du
ex ten
A T
dar über</w>
go ti
com ing</w>
experi ence</w>
L is
ich te</w>
er ing</w>
weiter e</w>
G ra
inv est
c el
K unden</w>
ff t</w>
be au
be findet</w>
we gen</w>
espec i
Wei se</w>
bur g</w>
contro l</w>
Fam ili
In v
in f
clo se</w>
Kommiss ar</w>
com es</w>
ou th</w>
w ater</w>
so wohl</w>
ser i
a si
so li
R om
Wirtschaf ts
Poli tik</w>
tur n</w>
sec ond</w>
de sign
all er
fi zi
do m</w>
w omen</w>
Ihr er</w>
v is
ch t
ro le</w>
in nov
sh ed</w>
en ter
Eu ro
d ou
vari ous</w>
er reichen</w>
ex ist
200 0</w>
guar an
e k
especi ally</w>
sel ves</w>
su chen</w>
indu stry</w>
K un
ver sch
di stri
wei sen</w>
wh ole</w>
Di enst
K li
mo dern</w>
l en
Ger man</w>
C ar
ec k</w>
an zu
h ör
sec tor</w>
ge ord
ord in
In di
k ämp
besonder s</w>
re ally</w>
J e
E uro</w>
zi ehen</w>
lie gen</w>
En de</w>
sa ge</w>
ak tu
ism us</w>
h atte</w>
z ed</w>
call ed</w>
exc ell
entsp rech
c li
B ri
J un
p t</w>
Min ist
mat ter</w>
govern ment</w>
d one</w>
a -
b lick</w>
m einer</w>
ir e</w>
G rupp
wor d</w>
ing t</w>
Ar tik
ation ale</w>
Zu kunft</w>
he alth</w>
L in
W ähr
P ra
S y
loc al</w>
m b
rit te</w>
priv ate</w>
wirk lich</w>
m ati
at y</w>
R ich
wis h</w>
le ben</w>
accoun t</w>
wi de</w>
A N
A R
C omp
vi l
Haup t
Servi ce</w>
unterstütz en</w>
un ser</w>
2 5</w>
f av
Bei spiel</w>
op en
s amen</w>
in t</w>
de f
h ang</w>
ih nen</w>
prof ession
l uss</w>
bud get</w>
nat ürlich</w>
cre ate</w>
entfer nt</w>
ti schen</w>
ab ly</w>
ab hängi
n ame</w>
inner halb</w>
in stru
verschie denen</w>
w a</w>
speci fic</w>
A fri
ta li
glob al</w>
ö h
are d</w>
ge l</w>
g l
d on</w>
1 6
viel en</w>
st aff</w>
do cum
gele gt</w>
finan zi
Ger many</w>
le ase</w>
i si
ne goti
tim men</w>
r ate</w>
respec t</w>
gegen über</w>
A t
fe at
W ettbewer
R ück
4 0</w>
inc re
B al
gen ann
spre chen</w>
qu ali
zah l
re search</w>
vi sion</w>
re li
lan gu
ak ti
po se</w>
ter m</w>
de c
U N
m il
st ei
N utz
B an
fac e</w>
Gr ün
f y</w>
mer k
an s
fü l
ne ten</w>
R olle</w>
a ir</w>
Richt linie</w>
ab ili
maj or</w>
s ön
gr und
y o
b lo
so ftware</w>
re duc
bre ak
des sen</w>
ti gung</w>
es sion</w>
We g</w>
her vor
For sch
autom ati
ß en
intern ationalen</w>
Leb ens
m illion</w>
mö chten</w>
d ungs
th ers</w>
P h
em e</w>
200 6</w>
ell er</w>
W est
ver s
k ul
and s</w>
c ally</w>
b s
l s</w>
ges t</w>
gu e</w>
li st</w>
zw ar</w>
um fas
some thing</w>
k rati
Ihr en</w>
acc ep
pro ject</w>
at ten</w>
1 5
di o</w>
ei cht</w>
en cy</w>
sever al</w>
adv an
f el
Geschäf ts
o -
ra cht</w>
a way</w>
it self</w>
ori es</w>
politi sche</w>
i k</w>
continu e</w>
emplo yment</w>
är e</w>
K ul
ol s</w>
fo und</w>
Frau en</w>
star t</w>
d ür
in tro
N eu
ah n
Indu stri
wn lo
par t
un tern
ac i
P e
D an
dire kt</w>
b l
F u
1 7
f ron
ec ted</w>
si schen</w>
on n
rapporte ur</w>
re solution</w>
d ort</w>
An t
mä ß
B au
ati ven</w>
lich es</w>
spra che</w>
ad ing</w>
r o</w>
stimm ung</w>
or ding</w>
cri sis</w>
europä ische</w>
19 8
kno wn</w>
ali s
I m
su ff
Hot els</w>
il s</w>
reg ul
Ta g</w>
dru ck</w>
jec ts</w>
ver sion</w>
o ften</w>
gent le
eh men
ck s</w>
S eiten</w>
vi a</w>
excell ent</w>
er ste</w>
to wn</w>
an y
2 .
mul ti
H ei
E C
n ei
f all</w>
op tim
ge währ
ben ef
ta king</w>
EU R</w>
reg ard</w>
h under
er a</w>
us er</w>
Dem ok
J an
on ds</w>
Re gel
ti ves</w>
stru k
den ce</w>
me work</w>
Deut sch
c ing</w>
v ement</w>
b ut
gentle men</w>
1 3</w>
auf ge
il t</w>
K omm
gr ün
b is
z usammen
li tt
ati ves</w>
ein zu
land s</w>
Al le</w>
H ier</w>
le ast</w>
le t</w>
Ne w</w>
ur ch</w>
gra tion</w>
bre it
gener al</w>
er ungen</w>
Ges und
er st</w>
U m</w>
c ro
sing le</w>
transp ort</w>
ein zel
sid ent
I tali
H e</w>
oo l</w>
a in</w>
Sp ra
o ff</w>
itä ten</w>
lan g</w>
parti cip
dr ück
sich tlich</w>
m el
ge f
fol lowing</w>
s ci
m ilit
m ot
E mp
r ules</w>
pri ce</w>
in ed</w>
wel come</w>
thir d</w>
f ood</w>
kti v
P i
en der</w>
grow th</w>
di sp
person al</w>
t ten</w>
mon ey</w>
as ser
el s
tr on
per form
wor ks</w>
K ur
o d
H ar
direc tive</w>
ver s</w>
at er
I S
Program m</w>
li es</w>
cul ture</w>
litt le</w>
t ation</w>
li g</w>
e as
ta ge</w>
an der</w>
on ce</w>
verschie den
F il
fra ge</w>
te x
Artik el</w>
bu tion</w>
me tho
Ver brau
environ ment</w>
Mein ung</w>
Ch ar
conc lu
acti vi
wie der
on line</w>
g sten</w>
fi eld</w>
schaf ts
n on-
w le
reco gn
stat t</w>
sub ject</w>
Z wei
U hr</w>
fic ation</w>
Entwick lungs
re present
t our
li gen</w>
dan ken</w>
ter min
tic s</w>
eff ici
auf en</w>
be deu
. .</w>
o un
E N
P ol
S el
w ri
to wards</w>
Sp an
deci sion</w>
bei den</w>
tu al</w>
ach t</w>
man u
T ag
un til</w>
Lös ung</w>
Un ser
produc t</w>
rit ten</w>
th ings</w>
comm unic
institu tions</w>
p hi
custom ers</w>
Situ ation</w>
B .</w>
K an
sp r
unser em</w>
lan g
lo t</w>
E S
techn ology</w>
ges agt</w>
up s</w>
pr o</w>
a gen
Wor ld</w>
on es</w>
t ar
ta ins</w>
ti gkeit</w>
tu res</w>
Mad am</w>
Sch ul
le ar
N o</w>
d om
F e
g än
Regi on</w>
e di
st ing</w>
lä ge</w>
ver besser
Dies es</w>
S ep
Zusammen hang</w>
incre ase</w>
mo sp
R au
sp ä
an aly
aus sch
B oo
Ab geord
individu al</w>
Is ra
hi m</w>
ag o</w>
z a</w>
agre e</w>
F isch
wen iger</w>
Ste u
th ank</w>
for ward</w>
po ten
stand ards</w>
fam ily</w>
te te</w>
ch er
opport unity</w>
P la
t a</w>
Ent schließ
pla y</w>
um s</w>
rit t</w>
No v
S pe
de sign</w>
pre v
er war
Ver antwor
S ü
Hil fe</w>
tei lung</w>
Produ kte</w>
N ot
b ung</w>
Tre aty</w>
c rati
begr ü
mo d
ger ich
ger e
j en
re icht</w>
I C
buil ding</w>
ra ther</w>
&apos; t</w>
er h
N i
posi tive</w>
A ir
di c
qu ite</w>
ba u</w>
re cht</w>
M ehr
n ich
per f
activi ties</w>
sign ific
vol l</w>
Dienst leist
bar en</w>
h ome</w>
h ouse</w>
er zi
Präsiden tin</w>
Demok rati
an im
Str ateg
pl es</w>
ein ge
unter schie
Mit tel</w>
E N</w>
eh m
h t</w>
c all</w>
orig in
gu te</w>
appro ach</w>
to p</w>
ma ch
w ün
gen d
1 .</w>
je der</w>
f -
s ätz
g in
1 4</w>
sion en</w>
inter est</w>
R a
200 5</w>
z immer</w>
e qu
wor t</w>
b ili
öffent lichen</w>
provi ded</w>
all en
L eben</w>
e duc
siden cy</w>
bit te</w>
tei len</w>
g ilt</w>
res ources</w>
valu e</w>
prin cip
Des halb</w>
en ds</w>
T V</w>
b ed</w>
A S
So zi
f ang</w>
C or
dar an</w>
i denti
in o</w>
St ru
Dat en
H aus</w>
fo c
forder ungen</w>
solu tions</w>
a id</w>
gesch lossen</w>
ge wi
y et</w>
per sön
ck t</w>
m om
tem ber</w>
M at
econom y</w>
ad s</w>
Er fahr
w ell
ho li
o se</w>
P ak
F rie
k ung</w>
K ü
zei tig</w>
fi le</w>
tu ally</w>
b zw
so gar</w>
et wa</w>
sch affen</w>
e ver</w>
u li
p ic
bzw .</w>
In iti
So ftware</w>
peri od</w>
do ws</w>
st off
ges ehen</w>
b ank</w>
A n</w>
an c
völ k
Gr und</w>
äch lich</w>
st y
D ec
M embers</w>
m embers</w>
fra gen</w>
pro per
ate gi
Sep tember</w>
berei ch</w>
mi ght</w>
ah r</w>
inclu de</w>
u te</w>
for table</w>
requi re
i an</w>
G ol
Milli onen</w>
con fi
ha ving</w>
or d</w>
beau ti
1 4
hin aus</w>
po ol</w>
ex per
ge macht</w>
form s</w>
w ing</w>
sp i
ell eicht</w>
Europ as</w>
Sicher heits
S ol
zah l</w>
in dem</w>
lei sten</w>
zei chn
ig n
Intern ational</w>
lu b</w>
fle xi
F rüh
am ong</w>
v ity</w>
aus zu
vi ol
ar ti
la dies</w>
min utes</w>
geb racht</w>
Sch utz</w>
G leich
Af ter</w>
effec tive</w>
St ate</w>
bin dung</w>
poin ts</w>
co sts</w>
Z w
ri cht</w>
in ion</w>
an trag</w>
äm lich</w>
di en
sch i
du e</w>
lä u
propos als</w>
al low</w>
p at
rec omm
ück sichti
z ö
n ämlich</w>
K ap
O ne</w>
amend ments</w>
Ge gen
Bes u
g -
Unser e</w>
gu i
Dies er</w>
is se</w>
Haushal ts
6 0</w>
ap art
cont ent</w>
m ember</w>
er klär
ant rä
re ali
transp ar
Deutsch land</w>
crati c</w>
n u
c op
fra mework</w>
saf ety</w>
ar s</w>
200 4</w>
2 4</w>
alisi erung</w>
re gel
for ce</w>
Kin der</w>
eben falls</w>
tion ed</w>
si tes</w>
zei gen</w>
s weise</w>
Lei st
ständi g</w>
beg inn
appro pri
1 8</w>
D ok
Th er
ag ri
wor ds</w>
cra cy</w>
Ver hand
reas on</w>
si eh
on a</w>
li sh</w>
ih n</w>
usam men</w>
ma kes</w>
ein igen</w>
J ap
Jan u
P f
enjo y</w>
pro gress</w>
c lim
web site</w>
er weise</w>
adop ted</w>
In stru
C hi
u ral</w>
sho w</w>
s einem</w>
de al</w>
p ass
brau chen</w>
Dur ch
re la
wes ent
M or
Eben e</w>
ges timm
olog ie</w>
F ar
gro und</w>
exc lu
e li
sich er</w>
to ber</w>
z eh
char ac
unterstütz t</w>
provi des</w>
le ft</w>
pr is
difficul t</w>
st ation</w>
ih m</w>
ah l
sup por
N ä
tei le</w>
po wer
W is
o thers</w>
pro z
Er fol
ne te</w>
comple te</w>
mit tel</w>
am oun
Zei t
R ates</w>
as sen</w>
Uni versi
Pri v
e th
W ach
demo krati
arbei tet</w>
Web site</w>
pro jects</w>
eas y</w>
St re
fund ament
d y
cre di
P unkt</w>
legisl ation</w>
f li
l ö
zeich net</w>
Aus sprache</w>
k ar
Person en</w>
re du
stauran ts</w>
k tor</w>
un ver
op inion</w>
dar in</w>
mo un
ä um
For m</w>
bo dy</w>
D ru
1 6</w>
resul ts</w>
fav our</w>
ü l
hal t</w>
kün f
abo ve</w>
E R</w>
applic ation</w>
Qu alität</w>
cont act</w>
etz en</w>
kom ple
pl an</w>
Mu si
st ens</w>
k ind</w>
li ve</w>
c o</w>
respon sibility</w>
M al
- B
G el
I I</w>
A C
Sch i
d d
gro ups</w>
ad di
M är
pre c
h y
atten tion</w>
poli cies</w>
Ber lin</w>
c ted</w>
in -
d liche</w>
W h
simp ly</w>
em b
ro ad</w>
z ung</w>
Re staurant</w>
ad dition</w>
beauti ful</w>
K ra
A L
H al
concern ed</w>
ger ade</w>
dür fen</w>
eh mer</w>
tra v
end ly</w>
ques tions</w>
sh ort</w>
der zeit</w>
am eri
ge geben</w>
D a</w>
succ ess
mei sten</w>
glau be</w>
T at
be half</w>
v a</w>
S ub
I T
Wel t
m ing</w>
f rie
reg ar
hal te</w>
pro chen</w>
Wei ter
n ationalen</w>
Jahr hunder
j e</w>
Ben utz
geb ung</w>
Sch lus
gr at
S al
hel p
h u
ide al</w>
H a
organ is
cer tain
200 3</w>
ou ght</w>
le t
us ses</w>
W il
gen au</w>
Wir tschaft</w>
1 3
K l
Z us
C as
wir tschaft</w>
h on
je den</w>
fre und
B re
pro mo
Gro ß
bei spiel
all gem
nich ts</w>
Ab stimmung</w>
zus ätz
y ers</w>
import ance</w>
4 -
k einen</w>
cou ra
inter est
A k
J o
bu s</w>
ad minist
c al
ch s</w>
sp ru
proc e
sol len</w>
ih rem</w>
soci ety</w>
ro w</w>
intro duc
ci r
Verein ig
direc tly</w>
tion s
si ert</w>
strateg y</w>
fre e
Gemein schaft</w>
ti sche</w>
sh e</w>
A p
b on</w>
vot ed</w>
b are</w>
den ken</w>
gre ater</w>
Besch äf
co ver
Re chte</w>
y a</w>
gehör t</w>
an stal
li ber
o wn
C an
gestimm t</w>
weiter hin</w>
pro mis
ho ch
mit t
k enn
se a</w>
alo g</w>
z usammen</w>
air s</w>
p tion</w>
manu fac
lo ws</w>
kl ar</w>
tra ining</w>
environ mental</w>
For tsch
äch st</w>
utz t</w>
k o</w>
me chan
c at
betri fft</w>
f ern</w>
o k</w>
p an
loo king</w>
ko sten
on g
R O
z äh
Dok um
mark t</w>
fun c
wirtschaf tlichen</w>
Or t</w>
imm t</w>
St ad
K amp
ed ure</w>
se i</w>
s po
ben ö
nat ural</w>
al ong</w>
j us
C ol
C om
ei g
su g
requi red</w>
ran k
B em
her r
tra g
chan ges</w>
k omp
L a</w>
ver stän
princip le</w>
ste p</w>
hear t</w>
fü r
bedeu tet</w>
p end
P un
T ür
p ages</w>
tn is</w>
extre m
e asi
c s</w>
ologi cal</w>
B ro
wichti ge</w>
tri tt</w>
rec ent</w>
An gebo
M inu
un a</w>
sch wi
h ot
Wach st
zu stellen</w>
m em
setz t</w>
respon sible</w>
sa che</w>
ni ght</w>
Be zug</w>
con f
ac ro
uni ties</w>
5 -
su sta
wür den</w>
break fast</w>
ch allen
Bür ger
fü h
n utzen</w>
a vi
be sten</w>
D en
c are</w>
am m
sol che</w>
stand ing</w>
struc ture</w>
me eting</w>
fam ili
a th
b ility</w>
bes ser</w>
pp ed</w>
Be zieh
cent ury</w>
t in
Änderungs anträ
des halb</w>
schn ell</w>
sen d</w>
Ges ellschaft</w>
st eu
k us
inst all
0 .
Go vern
trol le</w>
n ed</w>
deut lich</w>
cle arly</w>
addres s</w>
re st</w>
pos ed</w>
auth orities</w>
s wi
sen den</w>
h en
200 1</w>
Nov ember</w>
techn ical</w>
ktion s
Zu gang</w>
F i
erfol gre
auf grund</w>
r .</w>
f ris
mit ted</w>
re fer
tei lt</w>
F eh
I de
gra m</w>
re ly</w>
b s</w>
a il</w>
d au
D ank</w>
us es</w>
lin es</w>
V on</w>
ak zep
st adt</w>
sta at
Ko sten</w>
19 7
der ungen</w>
s et
achie ve</w>
stru ction</w>
Be völk
c r
Kol leg
te mp
low ed</w>
A pri
Rus sia</w>
Rich tung</w>
te ten</w>
näch sten</w>
mo ve</w>
op s</w>
S in
en ough</w>
E i
p ast</w>
wer t</w>
ad a</w>
F ör
Al l
Kli ma
nee ded</w>
B ra
st or
ci vi
fac ilities</w>
essen tial</w>
u tion</w>
Strateg ie</w>
stand ard</w>
bekan nt</w>
R at
Ges etz
seri ous</w>
re ach
stan den</w>
k s
ein ander</w>
c ar</w>
I T</w>
wle dge</w>
Mark t</w>
D u
mon ths</w>
ro und
ach ten</w>
use um</w>
fe el</w>
an a</w>
ing ly</w>
F est
In n
S or
Ver besser
per son</w>
nat ure</w>
br ing</w>
develop ed</w>
m ind</w>
t or
ne g
aller dings</w>
ic s</w>
Z i
ne l</w>
hist ory</w>
A D
f is
Nä he</w>
Mit arbei
rel ated</w>
gu ests</w>
ass er</w>
An sicht</w>
et te</w>
sch ö
Stru k
ris k</w>
hal tung</w>
curr ently</w>
da m</w>
cri min
Di rec
P lease</w>
Au s</w>
H an
ver ein
F ern
g ran
ac tive</w>
re staurant</w>
propos ed</w>
E l
H ol
ei ther</w>
ri ch</w>
gem ä
hä lt</w>
zü glich</w>
Um setzung</w>
o p</w>
lon ger</w>
er neu
mark ets</w>
bet re
zent r
trä ge</w>
hum an
ev ents</w>
car ri
Menschen rechte</w>
Apri l</w>
man ag
d ro
cent ral</w>
visi t</w>
ic ro
require ments</w>
lan ge</w>
vor gesch
p un
sch t</w>
z es</w>
com bin
inter ests</w>
our ce</w>
mb H</w>
v o</w>
p ol
spe ak
men te</w>
ur en</w>
t est</w>
oo ds</w>
par ties</w>
S i
Sozi al
F rom</w>
ne ar</w>
li mit
Win dows</w>
be tra
tic le</w>
intern al</w>
re -
com fortable</w>
Ziel e</w>
sp ace</w>
wirk ungen</w>
K omp
k u
langu age</w>
b ra
D am
D rit
i tion</w>
fü n
beispiel sweise</w>
Sel b
schein t</w>
we der</w>
Ver trag</w>
ho ffe</w>
w and
se par
organ iz
sp or
ple ase</w>
them selves</w>
Ver fahren</w>
Verantwor tung</w>
Ver sion</w>
D ah
ma il</w>
c ateg
si tion</w>
P -
vi ous</w>
200 2</w>
grei fen</w>
te am</w>
wer de</w>
regi ons</w>
pres s</w>
yo ung</w>
st et</w>
rau m</w>
Bed ingungen</w>
invol ved</w>
sch ön
eff orts</w>
je wei
ab les</w>
le b
ges prochen</w>
A m</w>
V ide
extrem ely</w>
ab sol
T ro
el li
demo cracy</w>
an ks</w>
l an</w>
8 0</w>
ih eit</w>
In te
se en</w>
competi tion</w>
Dur ch</w>
tot al</w>
Inv esti
gen u
G mbH</w>
T ri
Au ßen
reg ulation</w>
notwendi g</w>
verwen det</w>
o w</w>
an ts</w>
Anwen dung</w>
str ong</w>
aff ung</w>
am es</w>
ig ung</w>
ter ror
ne ver</w>
bi g</w>
ant ly</w>
all s</w>
rich tung</w>
be w
direc t</w>
implement ation</w>
fri endly</w>
vi elleicht</w>
A s
Inter esse</w>
off en
P a
c ases</w>
Demokrati e</w>
ke ep</w>
s -
Umwel t
c aus
kl einen</w>
gemein samen</w>
Ih rem</w>
Vorsch läge</w>
Z ah
ec k
sp ort</w>
Er weiter
sei ts</w>
S ti
ser ve</w>
O R
ati s
ber u
f ail
hel d</w>
f our</w>
mon it
Grund lage</w>
lo se</w>
20 0</w>
net work</w>
M an</w>
Rei he</w>
Tei l
Gesch ichte</w>
c am
A spe
Dah er</w>
mo di
free dom</w>
c la
t ory</w>
an o</w>
re lev
pe ace</w>
ari an</w>
K ön
Herr en</w>
Geb iet</w>
ber g</w>
de mon
ar ri
up on</w>
er ed</w>
Mög lichkeiten</w>
ev ent</w>
blei ben</w>
Mo d
s ab
at ory</w>
er reicht</w>
zo gen</w>
s eh
ber ücksichti
ma xim
Do ch</w>
schn it
situ ated</w>
plat z</w>
pre p
Ar ch
ta g</w>
st -
Arbei tsp
et c</w>
m al
demo cratic</w>
vor sch
inn en
h äl
ge ts</w>
Fran ce</w>
vi c
F l
a gi
region al</w>
sozi alen</w>
pri ces</w>
hö ch
P lan
P rin
L on
s st</w>
li k
An gele
ver fol
kön nten</w>
appropri ate</w>
ist an</w>
negoti ations</w>
k ol
N etz
ac tions</w>
har mon
glei chen</w>
materi al</w>
P ubli
r ates</w>
tw eit</w>
su cht</w>
develop ing</w>
Ö ff
l ack</w>
reich e</w>
Deb atte</w>
Institu tionen</w>
cre ated</w>
Er klär
cent er</w>
F ren
wen ig</w>
A G</w>
K enn
Ver wal
fun ktion
te m</w>
fort un
consi der</w>
r ing
al tern
uni que</w>
b ack
tru e</w>
D E</w>
ats ächlich</w>
vi de
educ ation</w>
d ar</w>
o ft</w>
ehr s
re ma
ges etz
ün sti
fer enz</w>
con ven
pa y</w>
z e
C our
1 7</w>
g rupp
mu sic</w>
entwick elt</w>
ch e
every thing</w>
re fle
Intern et
sh are</w>
ac comm
isch es</w>
ber eit</w>
st ly</w>
al most</w>
st ates</w>
5 00</w>
tu rel
si an</w>
W ieder
au t</w>
ri chten</w>
do wnlo
ru n</w>
ri st
requ est</w>
tain ed</w>
at ors</w>
th us</w>
St ell
be ach</w>
fo und
wis sen
verschieden e</w>
dr in
ari a</w>
vi er</w>
d on
ch ed</w>
stell ungen</w>
fun ds</w>
re form</w>
succ ess</w>
w .
impro ve</w>
ear ly</w>
rei ben</w>
boo k</w>
alo gue</w>
3 .
S an
spiel en</w>
ver antwor
Ho ch
verfü gt</w>
in en</w>
er fül
cor rec
steh enden</w>
forder t</w>
design ed</w>
B ank</w>
min im
Au ßer
Re chn
Her aus
Früh st
des cri
addi tional</w>
Fü hr
be finden</w>
n immt</w>
t ou
par ts</w>
me et</w>
im medi
ke y
h eu
fundament al</w>
clim ate</w>
vi ce</w>
Ab sch
wel t
k or
lä tz
C hr
z one</w>
p ment</w>
co st</w>
h or
fore ign</w>
gh out</w>
acc ording</w>
eff ect</w>
Aus wirkungen</w>
uni k
lo g
fall en</w>
er hö
fam ous</w>
c y
eff izi
ermög licht</w>
sp rä
D amen</w>
typ e</w>
Americ an</w>
tre at
de termin
ap er</w>
ru hi
wi ll
en -
Dis kus
sch ul
so on</w>
k er
Minu ten</w>
än dern</w>
I M
bo ard</w>
gel ei
e ch
hi er
lin ks</w>
h ard</w>
am bi
on i
stat t
l d
Kon ta
c ard</w>
Dienstleist ungen</w>
gemein same</w>
g te</w>
wel tweit</w>
gen ie
inclu ded</w>
lu s</w>
arbei tung</w>
ac tually</w>
a im
untern ehmen</w>
gri ff</w>
inv esti
mittel n</w>
sich ts</w>
mis sion</w>
er st
Rus s
hel fen</w>
Berichterstat ter</w>
Beh ör
ide a</w>
Ab kommen</w>
di gen</w>
ha ps</w>
kon kre
h atten</w>
ff e
i erung</w>
recei ve</w>
L A
ww w.
lat er</w>
Fren ch</w>
Par k</w>
ent er</w>
Isra el</w>
su per
Pre sidency</w>
pend ent</w>
under stand</w>
b ark
F rei
Di en
ex am
K at
c are
T ele
stat tet</w>
ta x
k rä
P u
K ir
li ving</w>
en coura
Fisch er
c amp
le ad</w>
ameri kan
Z u</w>
Off ice</w>
en ing</w>
susta in
acc ept</w>
erforder lich</w>
cap ital</w>
Par is</w>
le ading</w>
pro gram</w>
199 9</w>
Ein zel
A ff
zi ert</w>
ing -
Verhand lungen</w>
M et
ph ot
g um
Hin blick</w>
P an
ta kes</w>
ad urch</w>
ge stal
co ver</w>
ab led</w>
f al
Mitglie der</w>
z ation</w>
ur ing</w>
R E
T our
ob s</w>
h of</w>
Program me</w>
com b
B it
re ich</w>
out side</w>
W asser
jen igen</w>
ac y</w>
work ers</w>
F äl
men tioned</w>
Au stri
bil dung</w>
as soci
n ation
inte gr
P at
H ö
Tat sache</w>
Ver tre
W al
gesam ten</w>
Regi onen</w>
er seits</w>
us ers</w>
ta x</w>
fa ir</w>
äu ßer
ra ce</w>
g lichen</w>
ver fahren</w>
invest ment</w>
S an</w>
u ally</w>
M is
Ge f
f ran
feat ures</w>
St at
z .
re it
initi ative</w>
eben so</w>
ish ing</w>
ah n</w>
y si
p u
F er
g t
schlie ßen</w>
comm er
M as
Pre is
sur round
Finan zi
H af
Zent rum</w>
Außer dem</w>
einzel nen</w>
Grupp e</w>
M ob
ei en</w>
Por tu
ste ad</w>
lä ssi
Woh n
Ho w</w>
str ategi
re ach</w>
it ali
ei gent
amoun t</w>
ser ved</w>
Li ber
F ot
a vo
K or
di st
proc edure</w>
fil es</w>
Li ste</w>
a den</w>
Sch ritt</w>
h ours</w>
den ke</w>
p e</w>
weiter en</w>
do ing</w>
intern ationale</w>
län dern</w>
si erung</w>
we ek</w>
D el
m ed</w>
maj ority</w>
it ing</w>
li gh
to ok</w>
dar um</w>
K a
Kolleg innen</w>
ell ing</w>
N et
emp ha
er wäh
ver ur
z en
wer k</w>
tä ts
ep tion</w>
at trac
fre i
communic ation</w>
ele gan
s atis
g le</w>
Ergeb nis</w>
sm us</w>
Entschei dung</w>
throu ghout</w>
be zieh
B us
ck ing</w>
el ess</w>
än dert</w>
tel y</w>
lin ien</w>
ex tern
lich erweise</w>
for men</w>
B y</w>
tur en</w>
c e
lä sst</w>
lu x
hä tte</w>
S at
w ahl</w>
an gem
acro ss</w>
f lä
guaran tee</w>
er le
je dem</w>
b li
ä d
kon nte</w>
Berei chen</w>
signific ant</w>
certain ly</w>
un ds</w>
A ktiv
reli gi
me t</w>
F ur
in ge</w>
tradi tional</w>
a y</w>
Ri si
Ver wen
connec tion</w>
w under
par k</w>
sk i</w>
ch oo
Bes timm
sam keit</w>
fähi gkeit</w>
fin al</w>
Änderungsanträ ge</w>
s ent</w>
m as
a ware</w>
Vereinig ten</w>
Ver tra
exist ing</w>
con sequ
fron t</w>
Ant wort</w>
or ing</w>
zun ehmen</w>
Ver f
Plat z</w>
vor zu
wri ting</w>
B innen
d est</w>
ür z
tr a</w>
perf ect</w>
colle ag
sti c</w>
en or
1 9</w>
stan ces</w>
e y
di o
K rise</w>
g ten</w>
er -
B lick</w>
ne w
Americ a</w>
qui ck
Ur lau
indi c
Änderungs antrag</w>
Tur key</w>
Erfol g</w>
Bezieh ungen</w>
a de
gegen wär
d or
rel ations</w>
kämp fung</w>
G eh
ge st
pra kti
vel s</w>
medi a</w>
G ele
Bevölk erung</w>
con text</w>
perform ance</w>
er sch
concern s</w>
r un
m ut
Sta ats
ga b</w>
con sum
In st
par ty</w>
c ell
gleich zeitig</w>
A cc
s ou
D -
sta ge</w>
origin al</w>
al -
vi r
program m</w>
wichti gen</w>
gemein sam</w>
custom er</w>
än de</w>
ck e</w>
tim me</w>
ig ration</w>
z. B.</w>
ple as
vol le</w>
con tra
ent al</w>
Pre is</w>
Pro f
c as
wei ß</w>
speci ali
in ation</w>
h om
eb ru
accomm od
kno wledge</w>
U kra
richti g</w>
si sche</w>
lo k
äh ri
M y</w>
Th e
th ern</w>
ati c</w>
ei gen
milit ary</w>
je de</w>
imp act</w>
wi l
wal k</w>
S eit</w>
ad d</w>
län der</w>
Schlus sel
sei te</w>
pop ulation</w>
program mes</w>
B ar</w>
g ei
ander er</w>
fi ve</w>
buil t</w>
mom ent</w>
s mo
am a</w>
Tag es
co ordin
ke i</w>
st elle</w>
men d
g ame</w>
b an</w>
gt ;</w>
en ding</w>
& gt;</w>
be kommen</w>
S T
kl eine</w>
li eren</w>
lan gen</w>
bark eit</w>
app ly</w>
Pro to
Aus druck</w>
hei ßt</w>
conf lic
Un ser</w>
profession al</w>
al though</w>
Abgeord neten</w>
G eld</w>
blei bt</w>
ati v</w>
w at
Auf gabe</w>
d ent</w>
b ein
consu l
an z</w>
Jap an</w>
entschei den
rich tungen</w>
ill a</w>
2 1</w>
ot s</w>
comple tely</w>
Sch wi
Ver bindung</w>
Tür kei</w>
s sel
s ag
n it
inte gri
c ru
do or</w>
t op
no thing</w>
partn er</w>
erg ie</w>
F ebru
so ft</w>
A gen
M ot
un abhängi
establi shed</w>
for dern</w>
Minist er</w>
be h
si tz</w>
f s
H am
reas ons</w>
B ur
comm ittee</w>
co de</w>
inclu des</w>
be deut
St abili
comm unity</w>
ä lt</w>
mo bili
Z um</w>
m als</w>
verb unden</w>
Govern ment</w>
er inn
schri ften</w>
si ze</w>
re ad</w>
deci sions</w>
equi pped</w>
Au g
ul ate</w>
establi sh
Bar cel
al lows</w>
m es
su ch
Ein satz</w>
M al</w>
le gi
re main</w>
st a</w>
concern ing</w>
Ver pflich
ti vely</w>
ba th
agre ements</w>
S ince</w>
j ähri
ba sic</w>
gar anti
t ent</w>
äu fi
Kon trolle</w>
m einen</w>
O ber
Kon z
er lau
3 0
gerich tet</w>
ec e</w>
A c
a di
wirtschaf tliche</w>
fun den</w>
pre ci
z er</w>
gan genen</w>
sty le</w>
arch it
pr ise</w>
För derung</w>
A part
u es</w>
Partn er
erk enn
exp en
unser es</w>
Eng lish</w>
proc ess
ent ed</w>
ver bin
fi gu
t le</w>
7 0</w>
enth alten</w>
Lon don</w>
our c
prac tice</w>
m ise</w>
über zeu
cho ice</w>
j obs</w>
ab zu
gef ähr
gan gen</w>
Proje kt</w>
S h
sen se</w>
it able</w>
we st
st ep
re stri
m y
ati sti
gehör en</w>
J oh
O c
am s</w>
I S</w>
pl ann
bed ingungen</w>
C re
alis ation</w>
Ver ordnung</w>
partn ers</w>
sch es</w>
ei ch
G lob
Cour t</w>
ba si
in tel
sch le
ra ch
r us
sh or
b ad</w>
ar d
Nat ur
mo del</w>
sen de</w>
Sch la
ha f
, 000</w>
we ch
c le</w>
ne u</w>
ter ran
gr enz
Forsch ung</w>
inter net</w>
con stitu
sieh t</w>
tre ffen</w>
For m
e chti
z z
Jah res</w>
inf lu
we b</w>
de si
holi day</w>
con fir
2 2</w>
valu es</w>
per at
en lar
s ett
H i
rech ts
R ec
Ho st
dem and</w>
Dam it</w>
recei ved</w>
Lös ungen</w>
simp le</w>
Wis sen
sident schaft</w>
pur ch
ent ation</w>
hin zu
Mark t
devel op</w>
con struction</w>
C H
manufac tur
Inform ation</w>
ver hin
st ar</w>
verstän dlich</w>
f rü
prü fen</w>
s em
si di
w ise</w>
pack age</w>
V en
applic ations</w>
je des</w>
inte gration</w>
m us
ie ten</w>
L et</w>
an ischen</w>
Steu er
Lu x
Partn er</w>
k it
Au ff
equi pment</w>
k ing
bes u
sto p</w>
poten tial</w>
A pp
Erweiter ung</w>
n s</w>
objec tives</w>
Aug ust</w>
as h
hau p
enti re</w>
Qu ali
Behör den</w>
disp la
Bit te</w>
um e</w>
K am
sch utz
stell er</w>
wichti gsten</w>
Entschließ ung</w>
regar ding</w>
ger ne</w>
M ul
ob lig
en ed</w>
p ite</w>
E S</w>
Ver anstal
Ira n</w>
at mosp
M il
nach hal
ges p
syst em
Bei trag</w>
fun ction</w>
ach es</w>
an te</w>
Lis bon</w>
bel ow</w>
quick ly</w>
dd le</w>
Energi e
D V
Sch wei
Ge or
fl ü
tem por
benef it</w>
b it</w>
Nutz ung</w>
ra ble</w>
ver ti
high -
In nov
sor gen</w>
r und</w>
gen au
mehr ere</w>
man n</w>
saf e</w>
un ge</w>
Auf enth
guaran te
tion ing</w>
H ere</w>
gesam t</w>
s timmen</w>
foc us</w>
el en</w>
g ol
tradi tion
gemä ß</w>
fi ght</w>
ni ce</w>
a im</w>
fortun ately</w>
agri cultural</w>
s cre
la den</w>
A ra
conc ern</w>
p al
F eri
le h
Aussch uss</w>
Bu ch
ter rit
d aten</w>
success ful</w>
E ast</w>
er y</w>
Spe zi
9 0</w>
kan n
f est</w>
an ten</w>
bal d</w>
re ports</w>
hin sichtlich</w>
ima ge</w>
Wettbewer bs
Ge wal
zur ück</w>
spi ri
objec tive</w>
gan ze</w>
ti sh</w>
enth ält</w>
Lis sab
ei gene</w>
Ges am
li er</w>
an n</w>
W hi
Russ land</w>
E L
treat ment</w>
pro mise</w>
di gung</w>
ch eck</w>
limit ed</w>
gan zen</w>
g oods</w>
in k
5 .
se ems</w>
e uro</w>
S outh</w>
schwi eri
ven ess</w>
k ei
v eh
trans l
Vol ks
re mo
el ten</w>
ermög lichen</w>
B usin
2 7</w>
con tains</w>
Not wendi
be ein
d ents</w>
re turn</w>
bet ei
hand eln</w>
är en</w>
erh eb
Hot el
Ma y</w>
K oh
F lü
E- Ma
C ro
vel op
So li
Lan des</w>
ne ben</w>
f ru
zah len</w>
Verbesser ung</w>
rec ently</w>
sicher heit</w>
wo bei</w>
Mat eri
govern ments</w>
sci enti
n a</w>
rie g</w>
19 6
US -
x ed</w>
auf zu
an no
achie ved</w>
V or</w>
Ein k
fre i</w>
be züglich</w>
In de
su l
Fin ally</w>
hot els</w>
ch em
e ks</w>
d ates</w>
inde ed</w>
genann ten</w>
F ach
S en
F ri
Aussch usses</w>
ü hr
schließ end</w>
ri ften</w>
le vels</w>
ti ger</w>
Tex t</w>
ac ity</w>
S omm
con grat
T O</w>
kul turel
o v
ser ies</w>
K rank
well -
me an</w>
gu est</w>
Ergeb nisse</w>
V o
Jun e</w>
Verbrau cher</w>
li ance</w>
beginn ing</w>
wei s</w>
l ück
N ational</w>
l y
an gen
2 3
prev ent</w>
re p
T im
4 .
hu ge</w>
we g</w>
Angebo t</w>
ad ded</w>
Cent ral</w>
Selb st
dy nam
jo b</w>
increas ed</w>
comp uter</w>
it es</w>
ci ples</w>
key word</w>
L inu
ver pflich
T ä
B ul
plac es</w>
h äre</w>
O k
Gele genheit</w>
cle an</w>
B ü
Wo che</w>
ori en</w>
Arbei tn
völ lig</w>
si mil
W ort</w>
Geb äu
si t
every one</w>
n ie
Inform ations
De sign</w>
Bet ri
äh n
ür f
ans wer</w>
Sch affung</w>
present ed</w>
verbesser n</w>
Re g
lo ss</w>
2 3</w>
ag er</w>
vi ously</w>
sel ec
ig keiten</w>
A mend
Y or
Dar über</w>
Verwen dung</w>
di alogue</w>
ele k
grund le
ständi gen</w>
m m</w>
off ice</w>
Initi ative</w>
t licher</w>
clo sed</w>
Am ster
ac ks</w>
S ome</w>
flo or</w>
re views</w>
de p
för dern</w>
em is
e vi
consum ers</w>
organ isation</w>
no te</w>
Regi erungen</w>
Mitarbei ter</w>
lon g-
O N</w>
me an
agre ed</w>
h äufi
tra ff
gu ten</w>
r ing</w>
entwick eln</w>
sho ws</w>
verwen den</w>
groß er</w>
2 -
relev ant</w>
high ly</w>
w ed</w>
S on
high er</w>
M E
j our
as ked</w>
vor schriften</w>
b order</w>
Aff airs</w>
verfü gen</w>
un ion</w>
inn er</w>
un e</w>
bal ance</w>
N ieder
ver stär
at temp
st res
ent lich</w>
I D
P C</w>
Gesund heits
direc tion</w>
zi eren</w>
choo se</w>
Pri or
sustain able</w>
ur s</w>
in i</w>
suff ici
s ex
Ukra ine</w>
kre ich</w>
posi ti
cover ed</w>
C A
carri ed</w>
k ehr
be stä
U p
organ isi
po st
en able</w>
f lu
Untern ehmen
sion s
comple x</w>
bu te</w>
ast rop
am b
I r
zei t
C a
sozi ale</w>
ologi es</w>
dis ku
Inter essen</w>
schri f
nu clear</w>
fol ge</w>
Te am</w>
human it
fün f</w>
pre hen
di enen</w>
f s</w>
verfü g
be stehen</w>
spä ter</w>
Bil d</w>
op h
wäh len</w>
C ap
O N
I P</w>
Famili e</w>
e .
di glich</w>
wh ose</w>
pec ts</w>
en ded</w>
Notwendi gkeit</w>
amend ment</w>
g as</w>
4 5</w>
serv ation</w>
commit ment</w>
an gebo
W ert</w>
consider ed</w>
effec ts</w>
Ther efore</w>
No w</w>
M än
prin ciples</w>
re f
Zeit punkt</w>
p le</w>
Gi pf
f onds</w>
an ge</w>
Them en</w>
sho wn</w>
geh end</w>
li ge</w>
Ser ver</w>
f eld</w>
g ül
Hand els
Änder ungen</w>
M ich
W erk
innov ative</w>
c las
Lu ft
ic k</w>
ar in</w>
veh ic
ger ung</w>
trav el</w>
n er
per haps</w>
De velop
Arbeitsp lätz
3 00</w>
Be wer
Fran kreich</w>
ma ßnahmen</w>
n ie</w>
m einem</w>
zun ächst</w>
te sten</w>
C ity</w>
W ahr
ser ver</w>
ch ing</w>
Gä ste
ir gend
lat est</w>
J us
di ent</w>
sch ätz
Man agement</w>
t atsächlich</w>
ge eig
materi als</w>
Kon fli
Barcel ona</w>
T age</w>
pos sibility</w>
Gener al</w>
Erfahr ung</w>
g ers</w>
g al</w>
set ting</w>
spezi f
O f</w>
et ary</w>
b our
te i</w>
Verk ehrs
mat ters</w>
Organ isation</w>
F a
Währ end</w>
is ing</w>
Gesund heit</w>
con duc
H um
Kul tur</w>
de ten</w>
1 ,
intern ation
Aus wahl</w>
form er</w>
mo bi
M P
th anks</w>
Per son</w>
plac ed</w>
Zent r
fre ien</w>
opp el
x is</w>
ti v
Ver trau
ti veness</w>
di schen</w>
Her zen</w>
s al
Beh and
Über ein
bu ff
pl ant</w>
deta ils</w>
C D</w>
Gemein schafts
oo m</w>
an genommen</w>
Um gebung</w>
ein deu
Da bei</w>
An ti
opport unities</w>
sy n
gel eg
easi ly</w>
ü bri
c ame</w>
beh ind</w>
Ma i</w>
vide o</w>
An fang</w>
bau en</w>
ver se</w>
pre vious</w>
Fir st</w>
Fran k
Aut om
Ter ror
dou ble</w>
Ko so
öff net</w>
pop ular</w>
fre u
S um
th y</w>
I tal
ex hi
Sp ain</w>
S am
accommod ation</w>
Me tho
u ß</w>
R ot
fi k
ter ien</w>
stat us</w>
increas ing</w>
pres sure</w>
redu ce</w>
schrif tlich</w>
rou ght</w>
promo te</w>
spe ak</w>
ell a</w>
as pects</w>
und es
star k</w>
M icro
respon se</w>
ver stehen</w>
pri m
H om
le diglich</w>
Ei gen
atmosp here</w>
An aly
im mer
Komm unik
ho hen</w>
reach ed</w>
sch utz</w>
wen den</w>
bis her</w>
sta g</w>
al ing</w>
prep ared</w>
ogra ph
sam m
H aus
ge funden</w>
provi ding</w>
cap acity</w>
de pen
rema ins</w>
Mitg lied</w>
äußer st</w>
F le
spru ch</w>
comp et
Ein führung</w>
in fra
wi der
cre ation</w>
Afri ca</w>
Kre di
ó n</w>
jo int</w>
er c
Kamp f</w>
Jun i</w>
Öff ent
is on</w>
gesam te</w>
de ck
R A
au m</w>
er e
Ar ticle</w>
k i
il ed</w>
Verein bar
so und</w>
An zahl</w>
ex change</w>
proce du
ges sen</w>
ari ly</w>
Me er</w>
dra w</w>
wer s</w>
er ous</w>
Aktiv itäten</w>
h ung</w>
b illion</w>
extern al</w>
effici ent</w>
exp lo
ra li
ad ap
o il</w>
ter in</w>
sub mitted</w>
besch äf
sho p</w>
ter ia</w>
G est
s cri
produc ed</w>
som it</w>
nei gh
ck et</w>
par li
Umwel t</w>
Bri tish</w>
zus etzen</w>
Ital y</w>
tain ing</w>
br ingt</w>
b ir
Res er
mäß ig</w>
Al so</w>
anno un
M useum</w>
fil m</w>
king .com</w>
commer cial</w>
char ge</w>
bestimm te</w>
M y
Rat sprä
di e
hervor ra
Wachst um</w>
W ahl</w>
Spra che</w>
sum mer</w>
gewähr leisten</w>
H inter
Soli dar
pl om
industri al</w>
Gä ste</w>
ic ally</w>
wün schen</w>
bew us
lin k</w>
w oll
supp ly</w>
Proz ess</w>
gi ves</w>
mar k</w>
S wi
J av
Syst ems</w>
ver suchen</w>
ph ysi
sätz e</w>
schaf tlichen</w>
N ich
be sitz
erk ennen</w>
O ri
rei b
g liche</w>
emplo ye
prote ct</w>
er zeu
W asser</w>
ass ess
ein hei
ob wohl</w>
Inte gration</w>
ah len</w>
deci ded</w>
g ünsti
f än
b ür
E ing
n ö
ich ten</w>
k li
ourc en</w>
fund ing</w>
suppor ted</w>
T it
H y
K op
üh m
Produ ktion</w>
den s</w>
tic ally</w>
pri ority</w>
ver l
ti li
Dec ember</w>
ung sp
ish ed</w>
ap poin
gew öh
inter ess
es si
an ia</w>
c ause</w>
li ert</w>
H and</w>
zeh n</w>
ar ing</w>
De z
lea ve</w>
verk ehr</w>
Amster dam</w>
selb st
ther more</w>
S onn
R ess
Re publi
Con vention</w>
er enden</w>
en a</w>
tä ten</w>
fol low</w>
bestimm ten</w>
proper ty</w>
kon zent
fran zö
com prehen
charac ter
S ie
on nen</w>
Rau m</w>
re is
is land</w>
Z ahl</w>
O S</w>
D inge</w>
Pre ise</w>
re staurants</w>
West ern</w>
hol d</w>
enlar gement</w>
de te</w>
pro b
inde pendent</w>
mu si
Kommiss arin</w>
wer k
Be kämpfung</w>
B lo
minist er</w>
er weiter
im pres
zahl reiche</w>
sib ilities</w>
setz ungen</w>
Fortsch ritte</w>
si des</w>
l ös
produ ce</w>
pres ents</w>
civi l</w>
s la
sel f-
Organ is
In sel</w>
m bo
B l
ge m</w>
lar gest</w>
sch ütz
bet ro
zwei te</w>
Nat ur</w>
St o
Am eri
Tran s
3 5</w>
simil ar</w>
Industri e</w>
Tran spar
rach tens</w>
geb aut</w>
j ün
E rachtens</w>
ab ge
op tion</w>
qu es</w>
demon str
accep table</w>
re a</w>
gen der</w>
Vor aus
ho he</w>
S -
syst eme</w>
kri min
gen heiten</w>
consu mer</w>
lei cht</w>
ali st</w>
D or
er ster</w>
assi stance</w>
spr ün
i le</w>
2 5
ausge stattet</w>
m eines</w>
la un
y l
f r
P ap
mög lichkeiten</w>
Fun ktion</w>
instru ment</w>
mobi le</w>
i cial</w>
zeu ge</w>
spe e
Yor k</w>
L auf
En ter
ra di
größ ten</w>
ein schließlich</w>
an -
con v
Sp iel</w>
D I
ge wis
au t
C u
w ander
re over</w>
au ber
step s</w>
prä sen
199 8</w>
ill ed</w>
b all</w>
C am
em and</w>
pre par
cre ating</w>
Ger ä
mo vement</w>
read ing</w>
zi p</w>
wä l
ex ec
cl ass</w>
a i
Servi ces</w>
ari es</w>
acc ord
ten den</w>
spe ed</w>
ges ell
h es</w>
D om
außer dem</w>
fre qu
categ ories</w>
äu ß
apart ment</w>
sch au
ri eben</w>
p ul
E M
Bestimm ungen</w>
qu are</w>
sol chen</w>
Erklär ung</w>
Po sition</w>
ple ased</w>
Jahrhunder t</w>
ho ben</w>
Mar ch</w>
ic es</w>
Janu ary</w>
terran ean</w>
Dez ember</w>
We b</w>
St elle</w>
con struc
ins gesamt</w>
vari ety</w>
ru le</w>
b rought</w>
U N</w>
t ol
regul ations</w>
d adurch</w>
sag te</w>
P rü
vol len</w>
re sol
ro und</w>
stän de</w>
il om
air port</w>
los sen
s ource</w>
einzi ge</w>
exp la
credi t</w>
Han del</w>
inten si
ar en</w>
ver gangenen</w>
re in
m ein</w>
eb s
St .</w>
L es
pur pose</w>
con ference</w>
oll ar</w>
g ste</w>
bewer tungen</w>
Auf merk
Oc tober</w>
Di alog</w>
our selves</w>
ateg orien</w>
zwei ten</w>
w ritten</w>
To day</w>
let ter</w>
mes sage</w>
st ung</w>
soli dar
O per
D et
a h</w>
ber ühm
is es</w>
op e</w>
S lo
S A
N ur</w>
eh er</w>
ci a</w>
m ers</w>
ac ts</w>
p ati
acti vity</w>
st ability</w>
Inst all
g a</w>
ru s</w>
v an</w>
wi d
versi ty</w>
Boo king.com</w>
Mehr heit</w>
star ted</w>
L E
auf genommen</w>
rel ation
ev ent
wur f</w>
c ast
discus sion</w>
G ot
bec ame</w>
th ous
instru ments</w>
. 00</w>
in stead</w>
lei der</w>
ha fen</w>
Gewal t</w>
di stance</w>
Linu x</w>
F ak
shi ps</w>
An forderungen</w>
ges ellschaft</w>
Ch rist
f la
Entschei dungen</w>
er kan
pa id</w>
gel an
C ha
stell ten</w>
ko sten</w>
Investi tionen</w>
einzi gar
A gr
el e</w>
Kü che</w>
St unden</w>
le gung</w>
w -
rel ation</w>
Str and</w>
G ei
ne y</w>
L ehr
distri bution</w>
stu dy</w>
ar ran
Pun kte</w>
S we
interest ing</w>
Vorsch riften</w>
c lick</w>
Koso vo</w>
genie ßen</w>
Bil d
re pe
sec tion</w>
Ma sch
conven i
ologi en</w>
ca .</w>
ob en</w>
inter pre
ill s</w>
Aufmerk samkeit</w>
konzent ri
ro r</w>
rei bung</w>
al lowed</w>
tig ungs
Stad t
re si
d .</w>
Mär z</w>
comp on
ren e
Gef ahr</w>
e ven
cro ss
ag ing</w>
docum ent</w>
Gäste bewertungen</w>
ur g
Par ty</w>
opp ing</w>
B as
s sel</w>
nie dri
partn er
Er zeu
rela x
f ishing</w>
alis m</w>
ter t</w>
por ate</w>
qu ar
T or
y ond</w>
gi ving</w>
gn isse</w>
Kin der
sh ops</w>
En ergie</w>
M us
L ab
Proje kte</w>
St äd
Medi terranean</w>
Dem o
on dly</w>
k in
vo c
H ung
fis her
to ol</w>
l am
k ein
agen da</w>
K ün
K ern
stra tion</w>
Gr enzen</w>
ord ini
u le</w>
Bu d
l auf
di se
Re public</w>
tel l</w>
p ass</w>
stat ement</w>
legisl ative</w>
S c
G oo
E is
T H
M acht</w>
reg ards</w>
ä st
B undes
über sch
B ot
sel s</w>
Fe der
C lub</w>
sign ed</w>
ck er</w>
sen ce</w>
qu iet</w>
nis sen</w>
Ex per
com promise</w>
st ers</w>
po ver
be vor</w>
T ab
pa yment</w>
benef its</w>
Berei che</w>
b ase</w>
Wir k
elec tri
tei en</w>
conc ept</w>
lie genden</w>
G al
eff ort</w>
r at
ev alu
to -
bi o
S ou
lie ß
St är
Cent er</w>
letz t</w>
Develop ment</w>
h aus</w>
procedu res</w>
Dur ing</w>
ep h
V illa</w>
grow ing</w>
kon nten</w>
in en
ü b
Nor th</w>
gewöh n
we g
sch ool</w>
Fre iheit</w>
viol ence</w>
o ber
kei ts
ein gesetzt</w>
Par k
kon trol
Af gh
neu er</w>
dam age</w>
vil lage</w>
aktu ellen</w>
Fol gen</w>
pur su
gel ten</w>
wen ige</w>
contri bution</w>
M any</w>
Itali an</w>
histor ical</w>
wei s
stand s</w>
Ju ly</w>
Priv at
Rah men
en ced</w>
eigent lich</w>
wür di
vi er
ex tra</w>
größ te</w>
et z</w>
fas sen</w>
Wi der
N ation
pro mot
ch tung</w>
ro s</w>
requ ire</w>
archit ec
v in
Wettbewer b</w>
ab ri
P H
it em</w>
Regel n</w>
A dres
S im
dri ve</w>
oper ating</w>
di men
Span ish</w>
2 6</w>
t ac
le ge</w>
fan gen</w>
Land wirtschaft</w>
Kun st
ul i</w>
pos es</w>
s us
k am</w>
elec tron
m .</w>
V is
sel n</w>
docum ents</w>
kl assi
An frage</w>
lie f
t al</w>
wichti ger</w>
O -
b ahn
dig ital</w>
fol gt</w>
f alt</w>
kti ven</w>
Frühst ück</w>
E re
benö tigen</w>
v ements</w>
integr ated</w>
sp orts</w>
con st
provi sions</w>
to ols</w>
Z un
O pf
Beschäf tigung</w>
tempor ary</w>
tri t
ti sch</w>
ie te</w>
Ver än
downlo ad</w>
Ri ghts</w>
w onder
durch geführt</w>
Ne w
M eine</w>
Fir ma</w>
B ad</w>
do w</w>
un mittel
An ge
typ es</w>
t ask</w>
Ber u
men sch
i k
Re form</w>
Ok tober</w>
buil d</w>
2 8</w>
isti schen</w>
b y
Agr ar
fahr t</w>
cri teria</w>
Bel gi
k at
B on
a i</w>
b ru
ac e
kann st</w>
Portu gal</w>
in stal
S il
gh t
ein fa
jus ti
de cken</w>
Lin ie</w>
Z ur</w>
sch wer
happ y</w>
Stand punkt</w>
Forsch ungs
min i
ger ä
au lt</w>
Bem üh
Feri en
Ter ra
Fischer ei
bo x</w>
Präsiden ten</w>
O st
Bil dung</w>
le -
Hö he</w>
Al ler
europä ischer</w>
Unter such
chan ged</w>
Busin ess</w>
for ces</w>
D u</w>
erwar ten</w>
Diskus sion</w>
P as
immedi ately</w>
Janu ar</w>
con ver
altern ative</w>
Emp feh
N ationen</w>
go t</w>
S ite</w>
mu t</w>
ma sch
expres s</w>
Tele f
n or</w>
Universi ty</w>
el te</w>
k ürz
h ed</w>
S M
Stu di
Al though</w>
ve au</w>
E ig
I L
si x</w>
ver öffent
challen ges</w>
all ein</w>
wi esen</w>
j ähr
be ziehen</w>
V al
b ot
kur z</w>
iz ed</w>
U R
ast ern</w>
go es</w>
v al
lang fris
s a</w>
off icial</w>
At mosp
hin ter</w>
H eute</w>
high est</w>
dan ke</w>
1 -
Schwi er
zun ehmen
Musi k</w>
Kap it
dra ft</w>
el ements</w>
T u
apart ments</w>
get an</w>
equ al</w>
W ell
cra ft</w>
st es</w>
con om
ab schie
wor tern</w>
l ate</w>
E C</w>
Y our</w>
lö sen</w>
hör en</w>
cur ren
ra t</w>
or row</w>
ih res</w>
gel ö
Kön ig
5 0
Cent re</w>
employe es</w>
W est</w>
c lu
par king</w>
ho st
sat z
Berich ts</w>
fa ir
erfolgre ich
ange sichts</w>
so fort</w>
kur z
transpar ency</w>
gre s
ur sprün
un sch</w>
- F
help ful</w>
ann ual</w>
E v
eff e
avo id</w>
Fur thermore</w>
off izi
Grün den</w>
gre at
Bed ürf
advan tage</w>
Feh ler</w>
vol ution</w>
ant as
ch i
Lo c
as se</w>
t au
Transpar enz</w>
h ou
Poli tik
k am
alisi ert</w>
fri ends</w>
p ho
m ous</w>
Sa che</w>
ge wäh
aus drück
esti val</w>
Milli ar
transp or
Benutz er</w>
st ark
si l
tra in</w>
s an
mm ing</w>
öffent liche</w>
Sin ne</w>
E conom
ätz e</w>
Person al</w>
Produ kt
W ahl
analy sis</w>
wahr schein
erneu t</w>
Chr isti
da ily</w>
al te</w>
Ver tei
per man
sti e
aus reich
Bemüh ungen</w>
nah e</w>
v ali
lo wer</w>
proc esses</w>
Öffent lichkeit</w>
app lied</w>
schö nen</w>
begrü ße</w>
off ering</w>
An satz</w>
num erous</w>
speci fic
Do wnlo
re ality</w>
fin ally</w>
199 7</w>
M er
consequ ences</w>
ein gesch
T r
elec tions</w>
st able</w>
bath room</w>
ag ed</w>
Schlussel wortern</w>
Prä sidentschaft</w>
wor ld
le gt</w>
Auff assung</w>
i ze</w>
c .</w>
be hör
3 -
on t</w>
Kom promis
per c
K ör
r aten</w>
ständi ge</w>
Ere ig
- in-
On lin
histor ic</w>
ge worden</w>
fas st</w>
re view</w>
kti v</w>
con trac
n ungen</w>
pover ty</w>
s ent
fol genden</w>
requi res</w>
Bil der</w>
institu tion
Flug hafen</w>
hau pt</w>
it en</w>
R en
trau m</w>
wieder hol
m ess
tal k</w>
colle c
conflic t</w>
S P
g ation</w>
K no
C -
Se e</w>
bei tragen</w>
ell es</w>
ut ting</w>
tim ate</w>
Kra ft</w>
m in</w>
Pal est
bet rä
S up
ade qu
effici ency</w>
lab our</w>
li ves</w>
wer te</w>
Bul g
wir ken</w>
S af
be yond</w>
tu de</w>
gen s</w>
N ord
occ a
ig ran
er ter</w>
l ing
dis crimin
Bet ei
mor gen</w>
off ered</w>
se as
b and</w>
ler nen</w>
gra phi
z in
zeichn ung</w>
Urlau b</w>
T ou
solidar ity</w>
ch tet</w>
Lie fer
ß er</w>
entsprech enden</w>
die jenigen</w>
Re staurants</w>
sc ap
prote c
eg ation</w>
Syst em
g yp
modi fied</w>
lab or
ec ken</w>
ti e
ber echti
colleag ues</w>
B or
sel y</w>
l as</w>
Fäl len</w>
zi p
de ath</w>
sa ying</w>
b ran
C amp
s inn
a der</w>
S ho
k ers</w>
R oom</w>
bed ingt</w>
person s</w>
dru ck
buff et</w>
berei t
Gr ö
I mp
timm ung</w>
ge tro
verhin dern</w>
C al
exp ect</w>
b ig
an g
Arch it
2 4
besch rän
D o</w>
bal an
V öl
ther wise</w>
J uli</w>
K ommission
Dat eien</w>
zu frie
w ine</w>
po or</w>
demokrati schen</w>
t i</w>
be handelt</w>
ide as</w>
Dru ck</w>
pa ar</w>
Nat ürlich</w>
F lu
Mon aten</w>
g keiten</w>
fin e</w>
empha si
p lus</w>
implement ed</w>
wan ted</w>
minim um</w>
lik ely</w>
einf ach
use ful</w>
prac tical</w>
an lage</w>
ear ch</w>
s un
publi shed</w>
lo sen</w>
hä tten</w>
en se</w>
E ven</w>
cli ents</w>
An sch
au di
wer t
c on</w>
ra tive</w>
industri e</w>
ut ely</w>
ph one</w>
le c
di vi
ber t</w>
pro fi
Sp ei
P au
si eren</w>
sh opping</w>
erfol gt</w>
sor g
pro je
l o</w>
a war
terror ism</w>
Sch ließ
ch s
zü gi
establi sh</w>
sub -
be halten</w>
St ar
il legal</w>
ep age</w>
congrat ulate</w>
se ktor</w>
entsprech end</w>
Sch lü
tre i
star ting</w>
Ta gen</w>
k ro
st ab
cru cial</w>
l le</w>
C i
Atmosp häre</w>
re le
lear n</w>
tur ned</w>
Deb ian</w>
suffici ent</w>
Bür gern</w>
ser ves</w>
D ol
tom orrow</w>
ne ws</w>
W TO</w>
ver standen</w>
B lu
car ry</w>
N AT
Ba sis</w>
k ennen</w>
sec ure</w>
h .</w>
we eks</w>
berücksichti gt</w>
s ales</w>
richti ge</w>
techn ologies</w>
Behand lung</w>
d ner</w>
Nach bar
Tages ordnung</w>
Ma ß
bi a</w>
comprehen sive</w>
recomm end
d nis</w>
ch ter</w>
Ver gan
ist s</w>
fi el
ver gessen</w>
li a</w>
s ü
Austri a</w>
trans fer</w>
Zentr al
T at</w>
um -
pla yer</w>
zu führen</w>
zeu g</w>
camp a
S port
P D
l esen</w>
P hi
Whi le</w>
war um</w>
struk tur</w>
N r.</w>
g .</w>
D en</w>
ander em</w>
ali en</w>
organis ations</w>
H el
ho ch</w>
techn ischen</w>
est er</w>
Ber at
min ute</w>
si gkeit</w>
reduc tion</w>
de gre
op tions</w>
M ün
moder nen</w>
z t</w>
per fe
sich ern</w>
n ungs
eh em
monit oring</w>
fol gen</w>
some times</w>
D oppel
i or</w>
ver sucht</w>
nat ür
maxim um</w>
mach ine</w>
Micro soft</w>
mark s</w>
f it
deut schen</w>
P en
wei st</w>
A -
G et
he ad</w>
E L</w>
Bürger innen</w>
be mü
gi c</w>
cir cum
olog ischen</w>
E m
si en</w>
Un ter</w>
W a
ver treten</w>
re ference</w>
lea ders</w>
mor ning</w>
I F
lau b
Änder ung</w>
ver wal
n ehm
ex ac
gen ce</w>
Itali en</w>
sor gung</w>
st ör
über haupt</w>
prob ably</w>
cla im
world wide</w>
r ück
Me er
trä gt</w>
reas on
vot ing</w>
Be gin
Al tern
pla yers</w>
komm ens</w>
fü gen</w>
caus ed</w>
any thing</w>
Lissab on</w>
L eg
f ts
6 .
L assen</w>
di sa
Amend ment</w>
Menschen rechts
Afgh an
F ähi
l ess
L e</w>
beg in</w>
g ames</w>
Republi k</w>
challen ge</w>
al one</w>
führ te</w>
I s</w>
Chin ese</w>
verantwor tlich</w>
ver th
th in
k tive</w>
2 9</w>
mon th</w>
histor ischen</w>
stre et</w>
Viel e</w>
Ver häl
S icht</w>
ther ap
Begin n</w>
verth eless</w>
ge ments</w>
ander s</w>
be ste</w>
sc ale</w>
em ail</w>
interest ed</w>
M ag
C li
B rü
Aufenth alt</w>
erklär t</w>
Ress ourcen</w>
D r.</w>
off en</w>
ci ties</w>
Sch utz
un er
häufi g</w>
Span ien</w>
di gt</w>
nor m
can di
erfolgre ich</w>
pl ans</w>
ff enen</w>
Vergan genheit</w>
Al t
neu es</w>
F ron
Finanzi erung</w>
ver age</w>
ke ep
M om
M au
du le</w>
br ing
c ut</w>
M and
Rechts vorschriften</w>
long- term</w>
cer ti
gew esen</w>
An der
ch ance</w>
av ing</w>
ar gum
w ser</w>
zei ten</w>
voll ständig</w>
s ation</w>
Kon ferenz</w>
rech ts</w>
at tra
s ession</w>
S wis
langu ages</w>
ati v
zahl reichen</w>
Techn ologie</w>
erwar tet</w>
ti ges</w>
moun tain</w>
I -
So ci
bre chen</w>
Woh l
zah lt</w>
schaf t
Wo chen</w>
th ought</w>
fl uss</w>
Dat ei</w>
wa ste</w>
ig keit</w>
get ary</w>
tn isse</w>
i ed</w>
ten en</w>
stell te</w>
F ac
jewei ligen</w>
Frank fur
wel ches</w>
conc ent
Kul tur
chil d</w>
s th
erfül len</w>
Adres se</w>
far mers</w>
Zwei tens</w>
n ess
K al
ban ks</w>
Air port</w>
S .</w>
wahrschein lich</w>
Grupp en</w>
R O</w>
bi tion</w>
un ten</w>
brau cht</w>
Erfahr ungen</w>
institu tional</w>
re lease</w>
s äm
or ie</w>
199 6</w>
Th ank</w>
P ot
Mo reover</w>
E T
um en</w>
lo st</w>
F und</w>
wor ked</w>
selec tion</w>
be für
K u
gar den</w>
on y
ap preci
trit ts
F el
zu min
o t</w>
ck ets</w>
Sch ritte</w>
In fra
ex tent</w>
gesch affen</w>
ar a</w>
F R</w>
k ap
M ei
A gent
metho ds</w>
flä che</w>
k rise</w>
Pro te
er ende</w>
Vertrau en</w>
P P
scienti fic</w>
proz ess</w>
appe ar</w>
zumin dest</w>
In halt</w>
bed au
k lu
rel ating</w>
emp feh
as p
Con ference</w>
s le
acc ession</w>
st ets</w>
busin esses</w>
ad verti
Ro oms</w>
W erte</w>
sen si
accord ance</w>
gre en</w>
end lich</w>
gen utzt</w>
l auf</w>
schütz en</w>
metho d</w>
men tion</w>
ori enti
wal king</w>
ima ges</w>
angem essen
verpflich tet</w>
sec tors</w>
genu g</w>
com fort</w>
strategi c</w>
ver trau
streng th
Aspe kte</w>
Bes onder
vi ert</w>
y n
ail s</w>
außer halb</w>
re land</w>
co -
Heraus forderungen</w>
em er
ausge zeich
sp rech
3 1</w>
W ein
Drit t
st anti
en ze</w>
z .</w>
wei ten</w>
power s</w>
fiel ds</w>
bar er</w>
des pite</w>
lo sigkeit</w>
Min der
occ up
process ing</w>
pas sen
Direc tive</w>
No t</w>
Ber g
Ein ige</w>
u re
influ ence</w>
D ro
Aller dings</w>
is sen</w>
3 2</w>
gewi esen</w>
su s</w>
Ba de
heu tigen</w>
A K
c in
f ish</w>
st atisti
Rus sian</w>
G rie
s eines</w>
Angele genheit</w>
Da zu</w>
priv aten</w>
Pre mi
ter en</w>
coun t</w>
k en
letz te</w>
zi g</w>
men u</w>
visi tors</w>
ra ised</w>
L it
Kun den
innov ation</w>
k i</w>
b es</w>
é s</w>
Su per
I reland</w>
Ges prä
her aus
amerikan ischen</w>
persön lichen</w>
mo tion</w>
Sec urity</w>
y our
ach tet</w>
Struk tur
Di stri
kon om
leist et</w>
f ying</w>
str en
On ly</w>
flexi ble</w>
k n
est er
separ ate</w>
kol l</w>
sch o
Gebäu de</w>
ex tra
erlau bt</w>
dou bt</w>
w .</w>
sp rü
ru ption</w>
g g
e e
Publi c</w>
fäl lt</w>
g st</w>
di plom
tr ying</w>
Pre sident
ei l</w>
k ts</w>
oper ate</w>
inc or
b lu
M c
besser e</w>
Par teien</w>
Ö ster
Schwier igkeiten</w>
tro tz</w>
accep ted</w>
Ob wohl</w>
w inn
imple ment</w>
Berichterstat terin</w>
ex erc
um s
kar te</w>
Nach fol
stu di
publi c
gn is</w>
Sch wer
w ron
absol utely</w>
Goo gle</w>
jo in</w>
m and
se chs</w>
F alls</w>
gesch ütz
Regi erungs
aus schließlich</w>
regi me</w>
St ar</w>
7 5</w>
exp ec
Sta at</w>
m är
Spiel er</w>
ma p</w>
S onder
bil den</w>
2 .</w>
dem ands</w>
jus tice</w>
N eben</w>
ament ary</w>
19 5
at or
ou rable</w>
b rie
Arbeitn ehmer</w>
sta aten</w>
e te</w>
i d
h eben</w>
Gesam t
sc ope</w>
Hin sicht</w>
zeich nen</w>
Bet rie
Entschließ ungs
aff t</w>
gesch i
Sec ondly</w>
over all</w>
zu künf
elek tron
moder ne</w>
Dan n</w>
mp tion</w>
betre ff
gel t</w>
stoff e</w>
U K</w>
cri tical</w>
W er</w>
sch wer</w>
bor ders</w>
aff ected</w>
kl ein
neg ative</w>
gel n</w>
Milliar den</w>
k ü
M ini
Ih res</w>
pris es</w>
ö ri
S om
exp ected</w>
Fol ge</w>
Ein richtung</w>
ri gh
ün f
M ore</w>
kämp fen</w>
H T
Pra xis</w>
grupp e</w>
P S</w>
K rieg</w>
P ati
Kün st
swi mming</w>
ehem ali
sel ben</w>
Ho ff
contra ct</w>
ger ungen</w>
h our</w>
Vertre ter</w>
your self</w>
ter e</w>
Proz ent</w>
S eh
pa in
fäl le</w>
M ac
über nehmen</w>
un k
entschei den</w>
inten ded</w>
co he
begr enz
ge kommen</w>
Fre e</w>
in si
l aufen</w>
e- mail</w>
zu dem</w>
u tive</w>
Inv est
get ting</w>
G N
I ts</w>
Eig ent
us ually</w>
run ning</w>
0 -
bit ten</w>
D enn</w>
stie g</w>
ru p
li en</w>
di sche</w>
automati sch</w>
W unsch</w>
Angele genheiten</w>
vorgesch la
S Q
Arbeitsplätz e</w>
forder ung</w>
geh öri
bei de</w>
Gr and</w>
erkenn ung</w>
erinn ern</w>
Comp uter</w>
anti -
hear d</w>
Opf er</w>
nach ten</w>
Instru ment</w>
A T</w>
tar get</w>
for ced</w>
call s</w>
su itable</w>
lo ve</w>
So ft
Inde ed</w>
auf s
pe ace
ic a</w>
Auf gaben</w>
dat ab
bewus st</w>
a p</w>
gener ation</w>
Afghan istan</w>
prü ft</w>
re forms</w>
V il
stän den</w>
H ä
he al
Sü d
St ation</w>
R ed</w>
M ex
streng ungen</w>
A le
se e
j ahr</w>
begrü ßen</w>
V oll
Solidar ität</w>
d eine</w>
adop t</w>
k aum</w>
sa ys</w>
war m</w>
Regi on
R el
sch ung</w>
ra il
curren cy</w>
fan gre
f ast
ver mei
O L
D im
relation ship</w>
D ra
geb iet</w>
ge -
De sign
o de</w>
Con stitu
com par
main ly</w>
D re
even ing</w>
st ore</w>
sp ann
allgem einen</w>
us w.</w>
gu li
Frie den</w>
fre ie</w>
administ ration</w>
v ent
cri pt</w>
Sp ec
initi atives</w>
commit ted</w>
ri d</w>
l ern</w>
President -in-
nam ely</w>
gele gen</w>
aci ous</w>
Syst eme</w>
increas ingly</w>
. m.</w>
he ad
dest ens</w>
sh e
Organis ationen</w>
Er n
b on
w ood</w>
n ä
Ob je
Ar mut</w>
install ation</w>
open ing</w>
Di re
President-in- Office</w>
represent atives</w>
Hi gh
t our</w>
steh ende</w>
freu en</w>
v ital</w>
ter race</w>
d ated</w>
main tain</w>
An nahme</w>
eth n
expres sed</w>
E l</w>
itali en
traff ic</w>
plann ing</w>
L eute</w>
milit är
för dert</w>
Re ak
O S
ar k</w>
aus ch</w>
än der
tal king</w>
nor mal</w>
et c.</w>
Im mobili
us s
is tic</w>
pro per</w>
Sp a
t y
f antas
N un</w>
f oo
Al p
Mittel me
Er stens</w>
bor n</w>
struc tural</w>
and a</w>
f el</w>
dar stellt</w>
et ings</w>
Verf assung</w>
stres s</w>
größ ere</w>
en des</w>
impro ved</w>
ben utzt</w>
stu dents</w>
vorgesch lagen</w>
contro ll
eindeu tig</w>
famili es</w>
Kar te</w>
appro ved</w>
ha ft</w>
a .</w>
par te
Agen da</w>
Kredi t
G ast
Sit zung</w>
prac tic
go al</w>
ti ous</w>
re agi
Z er
tem perat
S ing
correc t</w>
automati cally</w>
hil fen</w>
Kl ein
Ele k
sp er
R ats
eng ine
e e</w>
esti c</w>
s agt</w>
T em
um fangre
Verpflich tungen</w>
Über wach
ent schie
n ationale</w>
comm ents</w>
zusätz liche</w>
H ause</w>
7 -
ad o</w>
th in</w>
K las
Rei se
ly mp
il leg
erg än
competi tive</w>
B ec
führ ten</w>
B ahn
A gre
power ful</w>
sp ie
coun ter
rit ann
Pe ople</w>
T sch
An strengungen</w>
a y
F alle</w>
n ern</w>
f ei
tour ist</w>
confi dence</w>
Onlin e-
exc ep
V ier
Fun ktionen</w>
DV D</w>
2 6
tro ll
Co sta</w>
Ide e</w>
er reich
H u
infra structure</w>
tz dem</w>
sa chen</w>
Sch en
bu ch</w>
N ah
reduc ed</w>
Ira q</w>
ch ec
un bedingt</w>
glob alen</w>
bo t</w>
Indi a</w>
7 .
ali sten</w>
li gung</w>
deci de</w>
V ic
olog ische</w>
W äh
L am
at ure</w>
t ations</w>
b a</w>
k ategorien</w>
M ach
beg innen</w>
los oph
de ckt</w>
pa y
deli very</w>
ein ger
feat ure</w>
Proto koll</w>
entsp richt</w>
mit ten</w>
un employment</w>
struc tures</w>
überzeu gt</w>
prote cted</w>
Kri terien</w>
Enter prise</w>
stär ker</w>
de cor
sp richt</w>
pho to</w>
ori al</w>
colle ction</w>
S ant
Er d
S oll
verein bar
Par tei</w>
D ollar</w>
E ff
schaf tliche</w>
administ rative</w>
te ach
sup ports</w>
schön e</w>
cohe sion</w>
ück e</w>
scre en</w>
Zus timmung</w>
W ahlen</w>
pp ing</w>
4 00</w>
Char ak
aktu elle</w>
beg an</w>
sub stanti
z lich</w>
r en</w>
o .</w>
cri tic
form at</w>
exten sive</w>
min destens</w>
ab kommen</w>
ar tige</w>
Fu ß
lich ung</w>
emis sions</w>
Produ ktions
cel eb
sich ten</w>
conclu sion</w>
circum stances</w>
de vi
li c</w>
glei che</w>
En ga
ver tre
tim s</w>
I st</w>
ver lässi
b ul
W ann</w>
deli ver
found ed</w>
N ations</w>
s ources</w>
be qu
Z immer
Vereinbar ung</w>
por ted</w>
Verwal tung</w>
be ha
I ma
alle y</w>
contri bute</w>
0 1</w>
wor th</w>
O sten</w>
ch ern</w>
Re formen</w>
S ign
func tions</w>
pleas ant</w>
genann t</w>
Palest ini
A M
pri orities</w>
I N</w>
vor gelegt</w>
electron ic</w>
unterschie dlichen</w>
selbst verständlich</w>
finan cing</w>
T y
h und
introduc ed</w>
ge zeigt</w>
ge tragen</w>
ver abschie
grün det</w>
Mul ti
Terror ismus</w>
Leist ungs
defin ed</w>
C he
but ed</w>
Ter min
er land</w>
Vor teile</w>
Gipf el</w>
plan ts</w>
as su
erle i</w>
Be stand
mem ber
J ust</w>
vor her
schnit t</w>
re siden
ä den</w>
el se</w>
lar ger</w>
effec tively</w>
ier ten</w>
lief ert</w>
x -
Währ ungs
per spec
C ze
hoch wer
so -
An erkennung</w>
re gre
E ach</w>
wh ite</w>
P l
encoura ge</w>
speak ing</w>
so fern</w>
ck ed</w>
stat tung</w>
b ü
glau ben</w>
fur nis
an ische</w>
an ci
f rüh
lat er
under standing</w>
gere cht</w>
gan gs
le ment</w>
In halte</w>
Gre ece</w>
ens uring</w>
drin gend</w>
k ungen</w>
ex ist</w>
v ac
Produ kten</w>
ch ine
erwäh nt</w>
b ab
st ro
cri me</w>
is ely</w>
Quali täts
mehr eren</w>
h eb
Sy n
Co de</w>
Techn ologien</w>
la ws</w>
l ad
t abled</w>
ris ks</w>
B S
verfüg bar</w>
z ing</w>
Stabili tät</w>
1 50</w>
manag ed</w>
ati vely</w>
h tt
tra ck</w>
kli cken</w>
del ines</w>
fre sh</w>
O T
b um</w>
Fre u
der zei
Haush alt</w>
w in</w>
o te</w>
posi tions</w>
erkan nt</w>
entsprech ende</w>
bil ater
Hom epage</w>
gen cy</w>
Binnen markt</w>
ri es</w>
Bem erk
acc es
wh om</w>
V ari
H or
li sted</w>
Stra ße</w>
y al</w>
ass ungs
open ed</w>
P L</w>
Besu ch</w>
vo ice</w>
Stand ard</w>
A sia</w>
W ar</w>
Swis s</w>
vic tims</w>
stär k
- -
ga in</w>
deta iled</w>
wonder ful</w>
pla yed</w>
Stell ung
st ein</w>
ll a</w>
tel eph
I denti
2 8
l ass</w>
eri es</w>
wesent lich</w>
har d
yp e</w>
Zu dem</w>
ut y</w>
imm ern</w>
h a</w>
Se ktor</w>
x es</w>
Produ kt</w>
particip ation</w>
Aussch uß</w>
g ert</w>
Wh y</w>
T est
.. ..</w>
pas sen</w>
20 20</w>
E-Ma il</w>
st ated</w>
ste chn
ing er</w>
entwick lung</w>
As soci
li gt</w>
fl ation</w>
de -
fizi erung</w>
berücksichti gen</w>
sy mbo
er fahren</w>
O lymp
Gel d
agri culture</w>
program s</w>
ho ffen</w>
N u
as ks</w>
re fu
N ahr
19 4
Schließ lich</w>
Fl or
ther e
rec ord</w>
part ment</w>
lux uri
Ü ber</w>
ch ter
wron g</w>
anim als</w>
Somm er</w>
hin weisen</w>
cont in
cam era</w>
t ari
nach dem</w>
disc uss</w>
sc en
sit ting</w>
Vol k</w>
ti tude</w>
an geb
Grie chen
st ent</w>
p aper</w>
rech ten</w>
komm enden</w>
A kti
spiel e</w>
umfangre ich
exac tly</w>
Frankfur t</w>
n ehmer</w>
mög licherweise</w>
ic o</w>
cross -
en er</w>
de dic
de bt</w>
ch mal</w>
transpar ent</w>
an ces</w>
bestimm t</w>
sel ected</w>
man ner</w>
b ritann
ar m
D e</w>
199 5</w>
land scap
a g</w>
Ph ot
li mit</w>
Zun ächst</w>
specific ally</w>
dan ger
Th en</w>
g lie
hil fe</w>
be coming</w>
w on</w>
be ds</w>
ri ffen</w>
akzep tieren</w>
Durch führung</w>
reg ular</w>
adequ ate</w>
aim ed</w>
s i</w>
Mit teilung</w>
partner ship</w>
k an</w>
in come</w>
pur poses</w>
T ier
P lan</w>
S un
lin ked</w>
ben utzen</w>
met res</w>
wei te</w>
akti v</w>
le y</w>
Febru ary</w>
Fun ktion
techn ische</w>
ro man
erzi elt</w>
wan ts</w>
vot es</w>
re presents</w>
ex isti
develop ments</w>
al t
Sch we
di enst
ten d</w>
r i</w>
sicher zustellen</w>
discus sed</w>
Fo re
en su
wer ke</w>
ru ral</w>
refer red</w>
Ch ance</w>
Au stra
be stehenden</w>
do wn
gen e
qu anti
open ha
E mis
2 ,
gelö st</w>
Anwen dungen</w>
zei chen</w>
Br us
fo ot
besonder en</w>
läu ft</w>
meas ure</w>
si t</w>
P S
M el
E G
Au gen</w>
zent rum</w>
assess ment</w>
Se a</w>
w ent</w>
we ap
grupp en</w>
en heit</w>
Medi en</w>
cle an
getro ffen</w>
N icht</w>
dom in
Swi tz
discus sions</w>
ta ges</w>
ac ci
Ver b
ho sp
ci ans</w>
s eiten</w>
Unter kategorien</w>
ver lei
Europ e
at o</w>
p assi
Ver sch
mark eting</w>
Su che</w>
eu ch</w>
ge ändert</w>
satis fac
prec isely</w>
H ig
war ten</w>
Ch anc
sub- categories</w>
di g</w>
thous ands</w>
is ine</w>
techn i
ch ron
sieh e</w>
Ein richtungen</w>
ent ry</w>
al ter</w>
be darf</w>
D A
g or
fel low</w>
ar ge</w>
Apart ments</w>
poli ce</w>
ar ischen</w>
Betri ebs
sp acious</w>
par ag
M ess
Sk i
af ter
Li z
f en
si zed</w>
n ütz
in side</w>
T au
Fre ih
mög lichen</w>
respon d</w>
ge mü
um gesetzt</w>
N utzen</w>
Fle xi
dig it
tu red</w>
Minist er
L at
5- 0
6 -
wei t
sp end</w>
Wettbewerbs fähigkeit</w>
Pro c
zu letzt</w>
e b</w>
geb enen</w>
Bre ak
medi cal</w>
Groß britann
d in
enter prises</w>
Hal tung</w>
o therwise</w>
füh l</w>
sidi ar
erfül lt</w>
am en
is tics</w>
sur ance</w>
fac ilit
introduc tion</w>
sh of</w>
ster ed</w>
Stand ards</w>
Bel ar
verb un
e ten</w>
ear lier</w>
notwendi gen</w>
D ig
Nation al
lie fer
gra du
ho od</w>
oper ations</w>
finanzi ellen</w>
Konta kt</w>
kit chen</w>
de ep
cli ent</w>
Kun st</w>
bro ad
So cial</w>
ge wal
pro por
fol lowed</w>
k on</w>
Mi ddle</w>
pla ying</w>
li o</w>
pop ul
Agre ement</w>
we gung</w>
du m</w>
hou ses</w>
bud getary</w>
exclu sive</w>
F r
co ffe
re jec
Zei chen</w>
s li
Ein fluss</w>
s timme</w>
fac ing</w>
connec ted</w>
z y
n y</w>
elegan t</w>
conv inc
clo sely</w>
C at
Mon ate</w>
M A
Gar anti
Bo ard</w>
L ag
ge ber</w>
ad ju
V ir
9 .
v an
M ol
Aus bildung</w>
win ter</w>
f and</w>
K ing
ander es</w>
vol ler</w>
sch reiben</w>
re present</w>
p sy
t ary</w>
r ent</w>
ab solu
on y</w>
ein gerichtet</w>
breit en</w>
j ene</w>
Z y
B ran
berei tet</w>
it ation</w>
Verbrau cher
Tur k
st one</w>
wa gen</w>
ma ß
p ath</w>
NAT O</w>
consider able</w>
Lei t
fest gelegt</w>
vi eren</w>
streng then</w>
sel ect</w>
um p
je derzeit</w>
buil dings</w>
er greifen</w>
Sp it
vermei den</w>
Mo st</w>
Kri eg
I R
B est</w>
Switz erland</w>
hr en</w>
Christi an</w>
kra ft
happ en</w>
ha ften</w>
Soft wa
t led</w>
Gre en</w>
geleg ten</w>
and ing</w>
wor ten</w>
S he</w>
sa ve</w>
s lo
moder n
degre e</w>
Kin dern</w>
Frie den
An spruch</w>
rech t
p ap
suppor ting</w>
en det</w>
dar unter</w>
cr ats</w>
isti sche</w>
own ed</w>
Joh n</w>
Bar ro
m ischen</w>
b illi
gui delines</w>
sho wer</w>
W ol
ob ach
e ad</w>
Vor berei
sich t
j et
geeig net</w>
ti ef
lich em</w>
Fil m</w>
seas on</w>
c ement</w>
verfol gen</w>
Geor gi
Viel falt</w>
i al</w>
att le</w>
M eter</w>
so- called</w>
discrimin ation</w>
comp ens
M ut
ti vity</w>
ber ich
w and</w>
man i
Hum an</w>
stär ken</w>
politi scher</w>
Fo und
Mo der
ut t
jewei ls</w>
purch ase</w>
imm igration</w>
Innov ation</w>
impro ving</w>
C le
re member</w>
net works</w>
au er</w>
Men ge</w>
teleph one</w>
eingesch rän
ac es</w>
st ausch</w>
lich st</w>
Hig h</w>
au ßer</w>
em in
compon ents</w>
gew ün
rich tet</w>
ange zeigt</w>
s and
l -
Rom a</w>
erhö hen</w>
be zo
grei f
ver ring
enn a</w>
ne ar
Vide o</w>
krä f
il -
hi m
spee ch</w>
he ar</w>
sicher lich</w>
bu y</w>
über nachten</w>
ra h
Poli cy</w>
Konz ept</w>
erzi elen</w>
H is</w>
car ds</w>
Schwei z</w>
In s
I B
exper ts</w>
E ver
Web seite</w>
htt p</w>
su m</w>
wel cher</w>
bro ad</w>
Cze ch</w>
we ek
u tili
ex pl
fu n</w>
a verage</w>
F la
entschie den</w>
Leist ungen</w>
teil weise</w>
ru fen</w>
Vertra gs</w>
At lan
cu isine</w>
un be
w indi
3 3</w>
dra mati
&apos; ll</w>
ent weder</w>
funktion iert</w>
L -
e. g.</w>
Sp a</w>
gelan gen</w>
thin king</w>
Famili en</w>
D P</w>
besu chen</w>
sch lä
typ ical</w>
ges und
t inu
ph ra
fre iheit</w>
c tions</w>
ag no
zwei fel
sto ck</w>
Sit z
ö st
tour ism</w>
Tran spor
St and</w>
spiel t</w>
ori z
ati schen</w>
sug gest</w>
di versity</w>
Jah res
Seh ens
Install ation</w>
K rä
wär en</w>
si vely</w>
verbesser t</w>
ver an
sch lagen</w>
ga ve</w>
se em</w>
Econom ic</w>
tr ust</w>
staat lichen</w>
Famili en
20 11</w>
ü t
proper ly</w>
Spra chen</w>
th -
sci ence</w>
rec eption</w>
N ame</w>
pre sence</w>
b us
li sten</w>
u ten</w>
Re zep
zus timmen</w>
it ems</w>
em o
an spru
Gr enz
tel e
sk i
pl ätze</w>
enti rely</w>
Un fortunately</w>
Re fer
Bec ause</w>
mechan is
Instru mente</w>
Febru ar</w>
J etzt</w>
pres sion</w>
gra de</w>
ehr te</w>
Ab schließend</w>
rel ate</w>
Sal z
perf ec
el ement</w>
Pro duc
d ol
rie si
Res earch</w>
We ge</w>
kl are</w>
Lebens mittel
P ass
provi sion</w>
er leben</w>
War um</w>
S timme</w>
Str ategi
Schla f
I D</w>
competi tiveness</w>
spiri t</w>
c ore</w>
Verwal tungs
S ci
richti gen</w>
dest ro
at ur</w>
Verän derungen</w>
Tä tigkeit</w>
wür dig
H än
Lei der</w>
Kenn tnis</w>
E AD
we ak
Gar ten</w>
ordin ary</w>
gener ally</w>
dra wn</w>
sto red</w>
Verein ten</w>
All gem
Ver bin
han den</w>
am e
sa w</w>
Fre m
Berich te</w>
uli eren</w>
o o</w>
d é
Arbei ten</w>
Pol and</w>
differ ence</w>
eli min
re fer</w>
dis h</w>
C lick</w>
Bi o
ha fte</w>
Mo un
nat ur
sti schen</w>
Absch luss</w>
Inn en
k a
kti eren</w>
Au di
pre sidency</w>
auf merk
en han
übersch reit
kon ferenz</w>
For derung</w>
ti se</w>
er stellt</w>
bo dies</w>
Un abhängi
s tim
Mod ell</w>
clas si
A ktion
sum mit</w>
displa y</w>
al d</w>
al tung</w>
ab ilities</w>
Initi ativen</w>
zäh len</w>
end or
off ici
mach ines</w>
es tim
tra dition</w>
ac tual</w>
I G
Brus sels</w>
sti t
spezi ell</w>
For um</w>
reason able</w>
ogra phi
ausdrück lich</w>
li an</w>
Mit te</w>
auth ority</w>
F it
leist ung</w>
ge halten</w>
pri or</w>
Ju gend
st abili
vor gesehen</w>
k la
woll te</w>
dom estic</w>
Ver gleich</w>
tig keiten</w>
Sch ön
Beschäf tigungs
advan ced</w>
coordin ation</w>
sch w
poli tics</w>
inform ed</w>
pp er</w>
E st
Z eiten</w>
ö konom
cre te</w>
Me chan
de aling</w>
rec or
da gegen</w>
S ach
lu ß</w>
bet onen</w>
P C
Flü cht
v ul
di a</w>
Viel en</w>
P T</w>
inform ieren</w>
P len
sch ä
me etings</w>
distri ct</w>
ho t</w>
fi z
charac ter</w>
hab it
Stre et</w>
Regel ung</w>
Tei le</w>
Enga gement</w>
En viron
On ce</w>
d an</w>
O ut
m as</w>
Abgeord nete</w>
difficul ties</w>
9 5</w>
sch rän
Ira k</w>
vehic les</w>
er o
parli amentary</w>
Aus gaben</w>
anim al</w>
Vor sitz
Besu cher</w>
0 s</w>
con dition</w>
l es
Po st
B ru
las h</w>
Gre at</w>
coffe e</w>
Kra ft
experi enced</w>
flexi bility</w>
appe ars</w>
ju d
R ou
l eng
f ach</w>
N E
tä glich</w>
dor f</w>
durch aus</w>
h ous
ell s</w>
mög lichst</w>
er leich
gew innen</w>
er o</w>
num bers</w>
peace ful</w>
app lies</w>
w om
Musi k
zentr ale</w>
P ic
besch lossen</w>
tol er
U l
F -
Tran sport</w>
t old</w>
p es</w>
Heraus forderung</w>
A sy
est ate</w>
fisher ies</w>
el ing</w>
ap par
be comes</w>
tain ment</w>
Dien ste</w>
be t</w>
vor handen</w>
gan g
s ets</w>
form ed</w>
bili tät</w>
consider ation</w>
H ier
perman ent</w>
gen ü
V ie
su ite</w>
N um
ali smus</w>
Mitgliedsta at</w>
Jahr zeh
w on
sth af
ing ton</w>
wen igen</w>
comp ati
An gaben</w>
Acc ording</w>
N icht
x e</w>
lok alen</w>
tz ent
res ort</w>
G ri
kl ar
y e</w>
ad ul
g ungen</w>
auf t</w>
D S
Break fast</w>
h ne</w>
ge fordert</w>
orig in</w>
führ er</w>
ali sts</w>
Har mon
Gol f</w>
li ter
Kli cken</w>
9 9</w>
Zei traum</w>
N G
n ation</w>
simp li
wa it</w>
f ro
angebo ten</w>
ju di
in ts</w>
Kom fort</w>
du ce</w>
Währ ung</w>
G ran
bre ak</w>
dan k</w>
benö tigt</w>
au ff
A ir</w>
cour ses</w>
b ahn</w>
openha gen</w>
ess or</w>
Dim en
8 .
ati n</w>
konkre te</w>
G as
mög liche</w>
Dru ck
prü fung</w>
mon etary</w>
zeu gen</w>
l ten</w>
Rats vor
- -</w>
Großbritann ien</w>
Ein wander
u fen</w>
elec tion</w>
Ori gin
easi er</w>
b ing</w>
sich ts
Haus es</w>
fre ue</w>
M ilit
establish ment</w>
sug ge
veröffent licht</w>
3 6</w>
jo y</w>
i erte</w>
li e</w>
pic ture</w>
econom ies</w>
tri p</w>
sec re
ma ßen</w>
ass es</w>
ti s</w>
Jahrhunder ts</w>
G od</w>
o re
finanzi elle</w>
con tr
Kat astrop
star ke</w>
datab ase</w>
Mi o.</w>
lig ten</w>
Kom ple
rich t
at ta
thre at</w>
ungs -</w>
rap h</w>
fi xed</w>
Geb ieten</w>
führ enden</w>
comb at</w>
S E
br auch</w>
leist ungen</w>
R ein
Po si
den k
asp ect</w>
konzentri eren</w>
practic es</w>
Wis sen</w>
Or d
prin t</w>
lea der</w>
gewähr leistet</w>
A B
aim s</w>
E ffe
emb ly</w>
for get</w>
Th ir
kulturel len</w>
f rau
wei ght</w>
würdig keiten</w>
Stat us</w>
Den noch</w>
sat elli
3 4</w>
tä tig</w>
pre fer
kt oren</w>
erfol gen</w>
attemp t</w>
Au to</w>
mod els</w>
dar stellen</w>
Terra sse</w>
medi c
alisi eren</w>
öff nen</w>
C er
Eng li
P rop
näch ste</w>
str onom
T our</w>
wach sen
continu ed</w>
Mad rid</w>
tion ally</w>
ent stehen</w>
ar ten</w>
t oren</w>
er scheint</w>
appro xim
Bei tritt</w>
s outh</w>
am eter</w>
s co
sp ent</w>
est en</w>
er stellen</w>
fail ure</w>
P s</w>
F und
kan ischen</w>
Her stellung</w>
Program ms</w>
M S</w>
ester day</w>
Nachfol gend</w>
am ing</w>
quali t
my self</w>
f low</w>
combin ation</w>
n ieder
King dom</w>
A G
li gi
em als</w>
c lub</w>
I ris
On line</w>
ar i</w>
Wor te</w>
pen sion</w>
erklär en</w>
pro pose</w>
da cht</w>
transl ation</w>
seri ously</w>
W ich
f und</w>
Komp et
verur s
gesch rieben</w>
den noch</w>
S ur
viel fäl
confi gu
2 4-
Ein igung</w>
Associ ation</w>
e .</w>
Re de</w>
Lo g
zäh lt</w>
unabhängi g</w>
vers al</w>
lie ben</w>
An trag</w>
Zwei fel</w>
s anc
fi g
associ ated</w>
a el</w>
pos t</w>
deta il</w>
Parl ament
O R</w>
stei gen</w>
pre ise</w>
il ing</w>
at z
attrac tive</w>
Kir che</w>
n om
4 8</w>
betra chtet</w>
ack no
Sant a</w>
Fern seh
I A</w>
qu alität</w>
Zw eck</w>
0 ,
promot ing</w>
low -
ill ing</w>
schwieri g</w>
hän gt</w>
any one</w>
in ci
anci ent</w>
him self</w>
C ast
spra ch
ah ead</w>
unterschie dliche</w>
rela x</w>
For derungen</w>
ü nen</w>
co s
cal cul
sich erung</w>
gegen sei
kun fts
ad ed</w>
T an
lie ßen</w>
M un
SQ L</w>
Komp on
be haup
2 7
etz ung</w>
Pak istan</w>
her unter
b at
wel t</w>
fü gt</w>
arch i
ge gründet</w>
beha vi
Ar gum
wa iting</w>
differ ences</w>
stu dies</w>
ter ra
Op en</w>
auth or
ver ei
woh ner</w>
reduc ing</w>
re servation</w>
be auf
avail ability</w>
be gan
Bei tritts
t un
fin ance</w>
e f</w>
br and</w>
n ar
Belar us</w>
an lagen</w>
ali zation</w>
Zi vil
S ehr</w>
fre ut</w>
announ ced</w>
M ari
ein gehen</w>
gro unds</w>
jour n
Analy se</w>
be aches</w>
hal ten
chan ging</w>
S cript</w>
umfas st</w>
pre -
Universi tät</w>
rä ume</w>
im possible</w>
l te</w>
Re gel</w>
Ch am
Öster reich</w>
care fully</w>
ph ase</w>
Ein haltung</w>
eh t</w>
rene w
s au
ac qu
ma gn
rele ased</w>
wir kt</w>
ut ed</w>
antwor ten</w>
Land wir
gestal ten</w>
absol ut</w>
f a</w>
saf e
da p
medi um-
humanit arian</w>
m useum</w>
balan ced</w>
Stellung nahme</w>
ber icht</w>
9 8</w>
Auf nahme</w>
0 er</w>
on e-
Ges ell
gesch ehen</w>
Sto ck
k op
boo king</w>
be glei
De fin
sha red</w>
disku tieren</w>
char ged</w>
Fir stly</w>
consu mption</w>
se eing</w>
des er
danger ous</w>
car s</w>
op position</w>
j ur
bekan n
d t</w>
immedi ate</w>
f ers</w>
Sehens würdigkeiten</w>
Griechen land</w>
k aufen</w>
acti v
nam es</w>
ein iger</w>
produc ers</w>
happ ened</w>
gelei stet</w>
Iris h</w>
gelei tet</w>
Priv ate</w>
me l</w>
fizi ert</w>
def ence</w>
agen cies</w>
lear ning</w>
hand s</w>
col labor
Tex te</w>
vern ünf
stat ements</w>
kon stru
architec ture</w>
isi erung</w>
f are</w>
d uty</w>
w oo
lie be</w>
boo ks</w>
sch lag</w>
EAD S</w>
ern sthaf
con crete</w>
Frühst ück
et ten</w>
th i
implement ing</w>
fir e</w>
Am bi
keep ing</w>
F onds</w>
or am
em erg
ec ke</w>
br ary</w>
ven ue</w>
re ise</w>
tra ding</w>
Kon fer
gewi cht</w>
exhi bition</w>
w all</w>
Gleich zeitig</w>
g la
Ab end</w>
le ben
Tra de</w>
W ün
A chtung</w>
Eng land</w>
end gül
St ellen</w>
We ch
f ly</w>
un ge
region alen</w>
pas st</w>
h inter
der ed</w>
krä fte</w>
K i
W ander
er tes</w>
Kommunik ation</w>
He alth</w>
ri ver</w>
jähri gen</w>
isch en
arri val</w>
lös ung</w>
d .
K er
O li
in form</w>
6 5</w>
s n
adv ance</w>
fol gende</w>
iz ation</w>
pic tures</w>
le ts</w>
u ter
tru ly</w>
20 13</w>
vi erung</w>
ausge wäh
Ange sichts</w>
inst ance</w>
dec lar
Viel zahl</w>
Gu est</w>
refu ge
tu ri
lei ten</w>
kor re
ar ticle</w>
ra ise</w>
A no
but ton</w>
intro duce</w>
crimin al</w>
M L</w>
phra se</w>
D ue</w>
Pri me</w>
é e</w>
Sor ge</w>
profi tieren</w>
evi dence</w>
descri bed</w>
Her steller</w>
Au gen
Entwick lungen</w>
E very</w>
Fu ß</w>
recomm end</w>
verfol gt</w>
Downlo ad</w>
con dem
Pak et</w>
Hinter grund</w>
sk ills</w>
samm lung</w>
p us
men ten</w>
s sen
me ters</w>
h aus
c ts</w>
Aspe kt</w>
K ab
C E
S port</w>
ff s</w>
G an
impro vement</w>
v el</w>
garanti ert</w>
über prüfen</w>
6 00</w>
n utz
3 7</w>
Prior itäten</w>
regi stered</w>
Dokum ent</w>
cl ari
a dem
An n
Europe ans</w>
pre is</w>
Lin ks</w>
relax ing</w>
no ti
elec ted</w>
Archit ek
Ar ten</w>
schi ed</w>
recogn ition</w>
guarante es</w>
be hin
Cas ino</w>
pass ed</w>
call ing</w>
b as
IS O</w>
t ür
fest stellen</w>
est ed</w>
our n
Pol en</w>
genu ine</w>
sp ending</w>
pos sibilities</w>
n eh
near by</w>
fe der
continu es</w>
ver lassen</w>
s in
Arbeits losigkeit</w>
str ong
pre is
s ale</w>
Ver y</w>
Afri ka</w>
Rechn ung</w>
ent y</w>
reli able</w>
tele vision</w>
F eu
ent ran
cor respon
install ed</w>
wis hes</w>
member ship</w>
hal tet</w>
R um
J a</w>
s ort</w>
s letter</w>
bi en</w>
weiter er</w>
Gener al
un acceptable</w>
su r</w>
st om
combin ed</w>
ci ous</w>
I V</w>
li ghts</w>
devi ces</w>
no on</w>
Partner schaft</w>
bre ite</w>
S til</w>
persön lich</w>
fir m</w>
pack ages</w>
Man n</w>
R ad
pen dence</w>
D on
g utes</w>
ö k
pun kte</w>
M es
la p
col or</w>
campa ign</w>
F en
m icro
Stär kung</w>
u red</w>
figu res</w>
el a</w>
ne -
adop tion</w>
empfeh len</w>
f elt</w>
Found ation</w>
g rie
religi ous</w>
mit einander</w>
199 4</w>
fi gh
S eine</w>
se ek</w>
fis cal</w>
comple ted</w>
Nach t</w>
übri gen</w>
Eis en
C ur
en ables</w>
ti erung</w>
be zeichnet</w>
un less</w>
al lowing</w>
territ ory</w>
or ders</w>
aussch uss</w>
su che</w>
strong ly</w>
great est</w>
bl ack</w>
Indi en</w>
Afri can</w>
pro spec
k ept</w>
in surance</w>
g an</w>
eng li
Mom ent</w>
o di
gegenwär tig</w>
an nen</w>
sensi tive</w>
k ilom
bru ch</w>
M use
particip ate</w>
p h</w>
il l</w>
vol u
t asks</w>
Ges etz</w>
Deut sche</w>
th or
ausge wo
an gesprochen</w>
o the
T un
i .
I II</w>
trä gen</w>
ar tic
Ver stän
Pf lan
Leist ung</w>
Betrie b</w>
il lu
s or</w>
zer stör
surround ing</w>
Sy ri
Les ung</w>
rei bt</w>
av y</w>
ma g
Bedürf nisse</w>
all -
ein geführt</w>
co l</w>
k -
W ill
belie b
R oh
ob tain</w>
führ ungen</w>
Proble men</w>
Is lam
man age</w>
franzö sischen</w>
govern mental</w>
F inn
Ide en</w>
komp li
W es
Nahr ungs
Man ager</w>
For men</w>
C op
gegenwär tigen</w>
Besch reibung</w>
con tain</w>
Sonn en
hin gewiesen</w>
un fortunately</w>
Jus tice</w>
er hält</w>
vol un
bar s</w>
Tra dition</w>
W ür
Tit el</w>
cour t</w>
clo ser</w>
über all</w>
k um
inten ance</w>
äst inen
Gemein samen</w>
Ir land</w>
zufrie den</w>
gro ß</w>
respec tive</w>
V -
v e-
defin ition</w>
C ul
fe ar</w>
positi v</w>
H ab
ma li
al a</w>
sur face</w>
demokrati sche</w>
Dis krimin
Ano ther</w>
le m</w>
beginn t</w>
attrac tions</w>
be wahr
tr enn
mi ddle</w>
Barro so</w>
St or
Ban ken</w>
ma g</w>
desi re</w>
absolu te</w>
u si
s se
gui de</w>
geschütz t</w>
Sin n</w>
t aus
ständi gkeit</w>
al ty</w>
Unter schie
Pla yer</w>
M O
sex u
komple tt</w>
Ele mente</w>
ein setzen</w>
co ast</w>
L ast</w>
appoin ted</w>
S .
Richt linien</w>
ac king</w>
con tex
B M
da d</w>
dan ach</w>
dedic ated</w>
8 -
O pen
de ca
Prior ität</w>
comp ared</w>
unterstütz e</w>
T R
Su ch</w>
H ist
plat form</w>
be hand
Überwach ung</w>
su n</w>
d ul
win dow</w>
w esen</w>
Ham burg</w>
groß es</w>
beau ty</w>
y right</w>
sign al</w>
sh es</w>
leist ungs
Ger icht
posi te</w>
dis pos
pi ece</w>
g ate</w>
E li
ren ov
p ing</w>
T en
8 00</w>
aufmerk sam</w>
B -
kein erlei</w>
umfas sende</w>
Sch au
Feder al</w>
3 8</w>
Ne ther
Vi enna</w>
us ual</w>
Je der</w>
haup ts
Turk ish</w>
ein ander
ausreich end</w>
einfa che</w>
ast s</w>
str on
inter face</w>
En d
be ar</w>
w asser
Regel ungen</w>
10 .
vor aus
erforder lichen</w>
Geschäfts ordnung</w>
c ent</w>
cor porate</w>
C af
mark ed</w>
ver tei
rou te</w>
ing u
enor mous</w>
er er</w>
claim s</w>
as yl
Industri e
C ub
verk ehr
besitz t</w>
größ eren</w>
Ver tri
M einer</w>
Fortsch ritt</w>
ge zogen</w>
Bewer tung</w>
An teil</w>
s .
go sla
C an</w>
condi tioning</w>
ann t</w>
c m</w>
säm tliche</w>
spezi elle</w>
fail ed</w>
pl ying</w>
bestä tigt</w>
Verhäl tnis</w>
um b
big gest</w>
V it
H ü
betei ligt</w>
Techn ik</w>
Mär kte</w>
bi eter</w>
vor liegenden</w>
Kri tik</w>
sor gt</w>
ges eh
Stad tzent
t ter</w>
S O
st ood</w>
individu als</w>
A L</w>
ex port</w>
d den</w>
po l</w>
Kan di
zi gen</w>
s quare</w>
expen di
E hr
Ko ordini
G ü
grö ßer
perspec tive</w>
w est</w>
län ger</w>
acces sible</w>
B ab
al ter
Grö ße</w>
stor age</w>
enti tled</w>
3 9</w>
ro ll
comm ent</w>
S tern
Er hol
0 9</w>
lux ury</w>
ver häl
mo ving</w>
ad o
E astern</w>
pp e</w>
Ch amp
5 5</w>
ta bel</w>
genann te</w>
son st</w>
on to</w>
wh ere
te sts</w>
exten ded</w>
en zi
K ris
ate ver</w>
Ent wurf</w>
aller y</w>
lo ad</w>
holi days</w>
pri vi
Gre ek</w>
L im
exerc ise</w>
J ac
H ome</w>
zah lung</w>
Mich ael</w>
inst all</w>
tot ally</w>
pro to
lä ss
de vice</w>
Er hö
hi elt</w>
Prin zip</w>
st ory</w>
nö tig</w>
comp la
ens wert</w>
A P
w ind</w>
In n</w>
wach st
mä chti
f our
ris es</w>
ro l</w>
n ennen</w>
vor hand
Z ü
wri te</w>
n d</w>
convinc ed</w>
Ne vertheless</w>
Mob ili
m illi
rail way</w>
ei st
Kommission s
fil l</w>
Brü ssel</w>
wä ch
LA N</w>
mittel s</w>
Demo crats</w>
Verpflich tung</w>
fl us
stra ße</w>
Stra ßen
urg ent</w>
ff er</w>
mö gen</w>
institu tion</w>
gra ph
aussch usses</w>
internation aler</w>
no w
mem ory</w>
K lim
kosten los</w>
S ha
Con tro
Y et</w>
zu gän
mot or
adverti sing</w>
Mis s
verbun denen</w>
L ast
grund sätz
B ou
ta g
her gestellt</w>
on ed</w>
offen sichtlich</w>
J ourn
s ni
rä ger</w>
k as</w>
sy mp
ho st</w>
garanti eren</w>
eck -
fac tors</w>
Glob alisierung</w>
ber eiten</w>
dis cover</w>
Agent ur</w>
contro ls</w>
Ma ße</w>
C D
v it
k tes</w>
do c
ch urch</w>
kt ors</w>
g as
en ess</w>
Unternehmen s
fac es</w>
f light</w>
sti ge</w>
stark en</w>
eng ine</w>
Mittel n</w>
c au
ad vice</w>
sug ges
de te
Ap parte
organiz ation</w>
g ä
ac qui
Wor ten</w>
mitt l
geb il
fas hi
Tre ffen</w>
Kom bin
expen sive</w>
b ath</w>
c e-
Bus h</w>
r ying</w>
dr än
a gen</w>
S and
199 0</w>
Ge wi
Nether lands</w>
ini tial</w>
Institu te</w>
ak t</w>
kra ft</w>
Fot os</w>
La ke</w>
bekan nten</w>
0 8</w>
pay ments</w>
D ut
Austri an</w>
medi zin
Da vi
un ch</w>
dise ase</w>
bil d</w>
organ ised</w>
statt finden</w>
cho sen</w>
Sch ri
gran ted</w>
ei m
dien st</w>
Unter kunft</w>
weap ons</w>
Alt stadt</w>
ment ary</w>
zusätz lich</w>
un able</w>
c er</w>
bein haltet</w>
Grün de</w>
A tom
r ated</w>
fi l</w>
Stu dio</w>
reis en</w>
A ss
1 st</w>
Mot or
Comp any</w>
loo d</w>
establish ing</w>
Verk ehr</w>
igran ts</w>
Ba si
ge k
Mon at</w>
sch ir
re chen</w>
ges chn
Kon tin
lim its</w>
w ettbewer
out come</w>
de fic
sh ing</w>
k oh
nit ure</w>
über tragen</w>
Frieden s
F estival</w>
contr ary</w>
sch la
g barkeit</w>
Um fang</w>
deut sche</w>
A V
perfec tly</w>
M ak
E- Fraktion</w>
&apos; re</w>
u .
ec kt</w>
att ack</w>
U .
äl fte</w>
S hi
up date</w>
k unden</w>
Jap an
e chn
T al
conclu sions</w>
Res ort</w>
er ung
an e</w>
Ni veau</w>
wesent lichen</w>
Erklär ungen</w>
ar di
pl as
Contro l</w>
tri ed</w>
sol cher</w>
sel l</w>
ver breit
ent sch
moun tains</w>
mas sive</w>
beg lück
z y</w>
bri tischen</w>
zu folge</w>
wen det</w>
Betei ligung</w>
t ch</w>
lü sse</w>
Pal ace</w>
Cro ati
nei ther</w>
betra chten</w>
ü ben</w>
te dly</w>
righ tly</w>
ha m</w>
f it</w>
con ci
furnis hed</w>
K aff
Gener ation</w>
e ß</w>
ambi tious</w>
Th us</w>
commit ments</w>
verl oren</w>
w ater
wün sche</w>
V e
Got t</w>
Ar e</w>
zu vor</w>
vali d</w>
Fore ign</w>
Gegen satz</w>
fin de</w>
al em</w>
vehic le</w>
Risi ken</w>
K ro
Re ligi
back ground</w>
exist ence</w>
ac compan
Pati enten</w>
gen des</w>
entsp rechen</w>
success fully</w>
Rei se</w>
e c</w>
Politik er</w>
rel ativ</w>
and ed</w>
Jav a
über ra
j ah
bli othe
agen cy</w>
en ni
quali fizi
e en</w>
conveni ent</w>
ma intenance</w>
ä ft</w>
sti sche</w>
f assung</w>
Europä er</w>
arti sts</w>
No te</w>
it age</w>
Entschließungs antrag</w>
gel ungen</w>
G az
Schlü ssel
St ein
Op tion</w>
Flexi bilität</w>
regi ster</w>
asyl um</w>
spezi ellen</w>
ktiv ität</w>
lä gen</w>
Metho de</w>
Dat a</w>
or g</w>
Bil dungs
P r
D y
e ar</w>
Kompromis s</w>
la h</w>
hon ourable</w>
f ts</w>
cla im</w>
mittel t</w>
on ia</w>
di sch
un to</w>
approxim ately</w>
Palestini an</w>
Mitglie dern</w>
Ein druck</w>
re mind</w>
at a</w>
A ktionen</w>
f ach
ex klu
nah m</w>
candi date</w>
Ereig nisse</w>
par a</w>
Koh ä
aus län
C S
wi der</w>
erh äl
sion -
ol der</w>
ver letz
Ven e
se g
Aus sicht</w>
0 7</w>
R äum
ge gangen</w>
Spra ch
den e</w>
aus führ
Weiter e</w>
E ar
achie ving</w>
as king</w>
ab gel
p ed</w>
fähi g</w>
Ab satz</w>
ter i
ran gi
rech tlichen</w>
Bei m</w>
p el
const antly</w>
ben ach
Rezep tion</w>
PH P</w>
exp an
ent ing</w>
ab geschlossen</w>
L atin</w>
R ob
t an</w>
surround ed</w>
P eter</w>
neigh bour
ge öffnet</w>
í a</w>
ob viously</w>
jün gsten</w>
deli ver</w>
angen eh
wan del</w>
tar gets</w>
monit or</w>
Auf bau</w>
Nach dem</w>
sib ly</w>
inter vention</w>
ul l</w>
man chmal</w>
m 2</w>
la ke</w>
continu ing</w>
produ ktion</w>
g uter</w>
dar aus</w>
B is</w>
un it</w>
sto ff</w>
struk turi
go als</w>
comp li
st ö
expres sion</w>
sorg fäl
categ ory</w>
inter ven
ag ue</w>
parag raph</w>
iel t</w>
Wir kung</w>
Loc ated</w>
Sch war
foo t</w>
Verstän dnis</w>
Re siden
Be griff</w>
v es
aff ec
In nen</w>
Empfeh lungen</w>
lin ge</w>
sen sus</w>
posi t</w>
tou ch</w>
inform iert</w>
inde pendence</w>
T emp
erhö ht</w>
sequ ently</w>
re den</w>
promo tion</w>
n ommen</w>
in struc
Er de</w>
tig ten</w>
colleag ue</w>
out standing</w>
nation aler</w>
wirtschaf ts
st ations</w>
Proje kt
Geb iete</w>
p ak
sequ ent</w>
C ard</w>
H on
d ance</w>
cont ents</w>
2 9
Ö l
vir tu
sid ents</w>
sich ert</w>
as ing</w>
Ver letz
ren o
haupts ächlich</w>
ti tle</w>
air craft</w>
N a
la id</w>
regi stri
multi later
Er war
lau t</w>
Constitu tion</w>
re ck
Plat t
ch -
Re alität</w>
g un
erforder t</w>
de ep</w>
exper im
some one</w>
oo k</w>
19 .</w>
tür k
der ship</w>
G eg
präsen tiert</w>
be st
Haushal tsp
An lagen</w>
sur vi
ide ale</w>
St art</w>
Meer es
Bot schaft</w>
isch em</w>
r t</w>
phot os</w>
oblig ations</w>
ar m</w>
zieh t</w>
v ous</w>
L ou
tion ary</w>
f illed</w>
alle l</w>
fac tor</w>
Ph ase</w>
1 1.
el em
advan tages</w>
Ob ama</w>
bar ri
str ö
ent eil</w>
R et
unter schei
rel ess</w>
o f-
Medi a</w>
nor th</w>
gri ffe</w>
so verei
kün st
gen er</w>
y esterday</w>
Zah lungs
physi cal</w>
in spec
S I
Hoff nung</w>
Risi ko</w>
Nutz er</w>
tn er</w>
be achten</w>
Th ose</w>
Gu i
Führ ung</w>
Far b
con tained</w>
plann ed</w>
lan gt</w>
ord nungs
bal con
Reg ulation</w>
m ly</w>
Binnen mark
füh len</w>
inten sive</w>
te -
bin ding</w>
si ed
er es</w>
E di
quali fied</w>
ob vious</w>
S ar
O M
dist inc
berühm ten</w>
Eff izi
dam als</w>
gesell schaften</w>
and o</w>
In seln</w>
Ale x
recommend ations</w>
loo ks</w>
Wieder auf
Ber lin
wichti gste</w>
deca des</w>
199 2</w>
mü s
mei st</w>
m ass</w>
Grund satz</w>
ir s</w>
es sions</w>
f ein
particip ants</w>
ne arly</w>
e quality</w>
allgem eine</w>
P R
emplo yed</w>
Mark et</w>
Ba y</w>
Agen cy</w>
ger ing
grie ch
bring ing</w>
Tei len</w>
er as</w>
dou b
so bald</w>
ag ne</w>
gi r
geschi eht</w>
cap able</w>
be zogen</w>
W at
s we
tä u
V om</w>
situ ations</w>
rei ber</w>
hö h
gri ffen</w>
govern ance</w>
Frühstück s
f esti
Bo th</w>
expendi ture</w>
Mus li
reco very</w>
Ch em
or al</w>
te sting</w>
glob ale</w>
consi sts</w>
th eit</w>
S S
R ome</w>
F T
Arch i
r ul
acc ess
comm unities</w>
J er
Al ban
p utting</w>
Pau l</w>
H -
t ab
j ungen</w>
einzi gen</w>
poin ted</w>
form ation</w>
see king</w>
landscap e</w>
E ri
sta ke</w>
ro b
ge stellten</w>
W inter
Gol f
speci es</w>
ri sten</w>
mer ely</w>
Nich trau
regel mäßig</w>
dimen sion</w>
G ent
EC U</w>
Be ach</w>
manufactur ing</w>
lei tung</w>
außer ord
Hin weis</w>
om as</w>
eri a</w>
en dum</w>
gewün sch
Eink aufs
zeu g
Fir men</w>
sm aller</w>
pre vention</w>
Gr unde</w>
du s</w>
w an</w>
satelli te</w>
le ads</w>
Be darf</w>
tri fft</w>
ein verstanden</w>
F lo
l li
nachhal tige</w>
fest gestellt</w>
Be obach
s m</w>
Fra ktionen</w>
por ting</w>
persön liche</w>
Haupt stadt</w>
Bei hilfen</w>
A S</w>
Voraus setzungen</w>
dynam ic</w>
m ün
substanti al</w>
Vor teil</w>
En ergy</w>
er ie</w>
H älfte</w>
Geg enteil</w>
f i</w>
dig ungs
O ther</w>
medium- sized</w>
mechan ism</w>
Mitglied s
Eben so</w>
Arbei t
S quare</w>
M erk
Dimen sion</w>
gel y</w>
dispos al</w>
Umwel tsch
Ko rea</w>
wor fen</w>
regi stration</w>
i. e.</w>
est e</w>
P ro</w>
consi stent</w>
To des
gel assen</w>
, 00</w>
li ste</w>
politi sch</w>
per s</w>
a ys</w>
Pe ti
p assung</w>
o c
li t</w>
Sch nit
siden ten</w>
zu gleich</w>
sp unkt</w>
fi f
A .</w>
phot ograph
B li
vorgeschla genen</w>
mo de</w>
ini ert</w>
be wegen</w>
Wel che</w>
pre mi
äu fer</w>
r é
ent gegen
betro ffen</w>
re ve
fic ations</w>
Städ te</w>
st am
a ther</w>
Bestand teil</w>
jähr lich</w>
6 4</w>
con temporary</w>
ühr en</w>
Sum mit</w>
Ver mitt
do s</w>
An y</w>
A g
t rop
guarante ed</w>
wle d
c en
bro wser</w>
caus es</w>
nam ed</w>
C y
ver z
e chte</w>
ö se</w>
x en</w>
ro m
Infra struktur</w>
sub scri
exten d</w>
Nieder lan
T ari
an bieten</w>
Vertra gs
gel aden</w>
ar ms</w>
W an
rap id</w>
Veranstal tungen</w>
mean ing</w>
gl ass</w>
Prü fung</w>
Aut o
Glob al</w>
han del</w>
ser n</w>
el -
dri ving</w>
ateg orie</w>
schn eller</w>
zip ien</w>
gram mati
br ings</w>
smo king</w>
Land schaft</w>
Ro yal</w>
Klima anlage</w>
prakti sch</w>
ver sions</w>
sp a</w>
Wor k
tradition ellen</w>
er r
fra gt</w>
comp liance</w>
wo durch</w>
vul ner
der i
techn ological</w>
gi cal</w>
determin ed</w>
ali sed</w>
Intern ationalen</w>
exam ples</w>
e ed</w>
freund liche</w>
f abri
u .</w>
Hol z
legi tim
ö sen</w>
tra gs
Ru he</w>
R ules</w>
Far ben</w>
S amm
Aus land</w>
4 2</w>
resul ting</w>
Win ter</w>
spre ad</w>
. de</w>
beru f
kon tex
betro ffenen</w>
Ak tu
stra h
regel n</w>
ra y</w>
n ü
wan n</w>
beschäf tigt</w>
Angebo te</w>
dau er
vor an
tre ated</w>
her zlich</w>
Th anks</w>
Swe den</w>
tr e</w>
g ere</w>
Zah len</w>
ga z
p et
Tim e</w>
prim ary</w>
er in</w>
on s
se ven</w>
gol f</w>
bu re
n a
bet t</w>
win den</w>
ver w
ol a</w>
conclu de</w>
Pra kti
Kon troll
Is land</w>
zi erung</w>
Stra f
ob ject</w>
Det ails</w>
vorsch lagen</w>
Bu ch</w>
Ferien woh
läu fi
Dien st</w>
gewäh lt</w>
trans fer
C ri
Unabhängi gkeit</w>
zu verlässi
bri dge</w>
Environ ment</w>
S D
lie gende</w>
ati sche</w>
optim al</w>
Z immern</w>
stell ungs
sp aces</w>
pleas ure</w>
m o</w>
c ast</w>
organis ationen</w>
ok ed</w>
n on
ex plan
Gesetz gebung</w>
blo ck</w>
v a
ogra f
Erhö hung</w>
li ability</w>
frü her</w>
psy ch
pati ents</w>
att acks</w>
fu el</w>
expla in</w>
addres sed</w>
Struk tur</w>
Auf grund</w>
ch mals</w>
Mar tin</w>
Ge währ
mit glie
fore st</w>
0 5</w>
I mm
Java Script</w>
voll kommen</w>
ali täten</w>
Tro tz</w>
em an
wel chen</w>
stoff en</w>
poten zi
tra gs</w>
Bra zi
weiter es</w>
began n</w>
respon sibilities</w>
Materi al</w>
n ations</w>
kürz lich</w>
n icht
j unge</w>
ger ufen</w>
Har d
cop y</w>
tz ei
ra dio</w>
to m</w>
9 6</w>
v als</w>
industri es</w>
strength ening</w>
associ ation</w>
Ver öffent
Form at</w>
besser en</w>
ori um</w>
m ari
sch we
Ta i
TH E</w>
strateg ie</w>
extre me</w>
Au th
3 .</w>
f ting</w>
gu ard</w>
Euro -
Über prüfung</w>
d licher</w>
C lu
Charak ter</w>
D er
zurück zu
multi -
fäl len</w>
König reich</w>
Al liance</w>
ör per
ser ving</w>
ö der
ein erseits</w>
bed room</w>
wer ten</w>
si mul
scho ols</w>
disku tiert</w>
tal ks</w>
tel ef
Ratsprä sident</w>
B us</w>
n den</w>
identi ty</w>
Unternehmen s</w>
4 9</w>
J es
reagi eren</w>
Ser ie</w>
techn ik</w>
sk y</w>
Stadtzent rum</w>
mis s
Metho den</w>
G U
k ehr</w>
Liber alisierung</w>
v ar
fer tigt</w>
prim arily</w>
al p
Bo sni
Fi re
re move</w>
Lauf e</w>
ta ste</w>
is s
enter ed</w>
sol e</w>
evalu ation</w>
ber n</w>
P ool</w>
Qu es
L au
Män ner</w>
G DP</w>
wä s
ur ban</w>
schö n</w>
re spe
no tice</w>
N ice</w>
E F
ol z</w>
kin ds</w>
R am
nah e
Min dest
Publi k
9 7</w>
lo ts</w>
ste el</w>
St atisti
En joy</w>
2 50</w>
there by</w>
pre viously</w>
Nichtrau cher
Finan cial</w>
Be wegung</w>
hol en</w>
bezieh t</w>
IN G</w>
Dut ch</w>
grenz überschreit
gan gs</w>
Pro vin
Gä sten</w>
m ar</w>
Re guli
multi ple</w>
requ ested</w>
lie fern</w>
invest ments</w>
Rum än
K r
es -
gesp eich
leh nen</w>
con soli
qu ick</w>
event u
con sensus</w>
L icht</w>
einzel ne</w>
sprü che</w>
ari um</w>
kontex tu
accoun ts</w>
Hand el
M ehr</w>
av es</w>
ti le</w>
pp en</w>
gesch lossen
Diskrimin ierung</w>
Teil nehmer</w>
Lie be</w>
16 0</w>
trei ben</w>
discus sing</w>
Rom ania</w>
vi lla</w>
incor por
intel li
L ink</w>
stimm t</w>
dic t
del ay</w>
Bed ro
t on
spezif ischen</w>
m ol
abhängi g</w>
ta il</w>
s qu
stra i
T -
C ho
ori a</w>
deliver ed</w>
bequ em</w>
ul tim
ri gi
K ilom
K lar
m ale</w>
berei che</w>
sam er</w>
Gr enze</w>
ten de</w>
par l
schau en</w>
g one</w>
ti er
an geht</w>
k ali
br e</w>
Netz werk</w>
Klima wandel</w>
sk in</w>
War en</w>
A dri
ti ally</w>
Fähi gkeit</w>
um welt
k amp
g al
bu tions</w>
serv ations</w>
P L
Ord nung</w>
199 3</w>
we gs</w>
sei tens</w>
lea dership</w>
d ler</w>
represent ative</w>
Des pite</w>
gres sive</w>
comp lic
8 5</w>
Fäl le</w>
bil det</w>
ab sch
will ing</w>
de h
compet ence</w>
zi em
wa chen</w>
län e</w>
p our</w>
V I
can cell
Über zeu
it a</w>
Su ite</w>
ra d</w>
op posite</w>
komp et
Dokum ente</w>
West en</w>
ra il</w>
vi sible</w>
Koordini erung</w>
v ent</w>
dan ger</w>
es sive</w>
akzep tiert</w>
def ault</w>
ur s
M aria</w>
Ban k
fe eling</w>
Ti ere</w>
Reak tion</w>
positi ven</w>
20 .</w>
la gs</w>
Br enn
Min utes</w>
gh ted</w>
ig u
tion ality</w>
F ut
w- how</w>
sou thern</w>
controll ed</w>
manufactur ers</w>
hol ding</w>
ã o</w>
Fre unde</w>
sp eich
prep are</w>
bet ont</w>
Ar gent
region ale</w>
j ahr
Milit är
An passung</w>
z ell
en g</w>
H öh
de alt</w>
Aut ob
spezif ische</w>
Ver such</w>
lei den</w>
Kombin ation</w>
richt linie</w>
sub si
jähri ge</w>
fahr ens</w>
Unterschie de</w>
t ment</w>
sicher stellen</w>
Ge fühl</w>
beein flus
Aktion sp
Sch n
sch war
Wil len</w>
ung er</w>
aff ect</w>
ben e
Ameri ka</w>
sa v
P op
we alth</w>
enn ung</w>
ur ge</w>
lich ten</w>
kon ta
ver m
län dlichen</w>
Per spe
Da y</w>
K M
speak ers</w>
sanc tions</w>
Schlus s
ro krati
or a</w>
mo ved</w>
for um</w>
ig es</w>
ge arbeitet</w>
W aff
r uns</w>
Geb ur
D adurch</w>
un zu
represent ed</w>
Su ch
hab er</w>
di verse</w>
conduc t</w>
St unde</w>
tur ing</w>
compati ble</w>
ver lieren</w>
stä d
e z</w>
Ever y
la w
di um</w>
C O</w>
über nommen</w>
in spi
T wo</w>
F lä
present ation</w>
We gen</w>
Um ständen</w>
Ma il
pr en
dest ination</w>
Über nach
ev a</w>
Vorberei tung</w>
höch ste</w>
Kör per</w>
signific antly</w>
E gyp
Be fore</w>
li ation</w>
Gesetz e</w>
Telef on</w>
au sh
fru it</w>
appro val</w>
d ritten</w>
b om
F ind</w>
0 6</w>
em a</w>
ein s</w>
Sü den</w>
E G</w>
ander erseits</w>
An dre
m -
V ia</w>
tur ning</w>
no ise</w>
Zu stand</w>
G B</w>
ba siert</w>
streng th</w>
qu ote</w>
min e</w>
ü r</w>
r ö
servi ert</w>
no chmals</w>
ver anstal
Schi ff
A P</w>
enti al</w>
Tem perat
ehemali gen</w>
auth or</w>
mom ent
wech sel
ad or</w>
An liegen</w>
lin ed</w>
k el</w>
K y
Diskus sionen</w>
er geben</w>
Kon zep
B la
verstär kt</w>
sha pe</w>
G laub
recomm ended</w>
A qu
h oriz
Strategi en</w>
hän gen</w>
un anim
Bahn hof</w>
wn s</w>
ma gaz
geb en
exper tise</w>
Vi elleicht</w>
Eigen schaften</w>
bür ger
h ing</w>
T ie
Teil nahme</w>
z -
fo lio</w>
laun ched</w>
ein richtungen</w>
gewis se</w>
Sc ot
stat ten</w>
R ent
Del egation</w>
m ur
W ur
Rom an</w>
n un
wieder um</w>
loc ations</w>
Eink lang</w>
B ir
de ad
pa ir</w>
An lage</w>
sei en</w>
c ab
Ber ücksichti
impro vements</w>
ent lichen</w>
Sch u
mechanis ms</w>
char ming</w>
S ter
Komm ent
Fran c
am ong
M ein</w>
itä ts
high light</w>
Ele c
help ing</w>
Stu die</w>
Be denken</w>
kno ws</w>
don e
web sites</w>
rel atively</w>
Par ti
Bal kan
so weit</w>
inter es
grund lage</w>
Sup port</w>
leng th</w>
among st</w>
T ru
L eu
gest ern</w>
hel ps</w>
mut ual</w>
derzei tigen</w>
ec es</w>
art a</w>
Sat elli
ra tions</w>
in er</w>
K unde</w>
e ding</w>
T I
refuge es</w>
engine ering</w>
zunehmen d</w>
viel mehr</w>
rep ly</w>
expec tations</w>
and -
Freu de</w>
ou l
b un
ef s</w>
consul tation</w>
S au
C E</w>
or ca</w>
An gel
G ep
B is
ho l</w>
si eben</w>
Sch ule</w>
Wh ite</w>
B ack
W C</w>
mit tag</w>
li sten
ver langen</w>
occ ur
co vers</w>
bo at</w>
Er wachsen
bed rooms</w>
Kol lege</w>
tre es</w>
Spiel e</w>
Po ker</w>
ari en</w>
Verfü gbarkeit</w>
experi ences</w>
en -</w>
ra n</w>
mel dung</w>
del egation</w>
Rot ary</w>
k ir
exc ept</w>
pro u
begr ün
graphi c</w>
ff er
Hil fs
requ ests</w>
sol d</w>
k einer</w>
em ed</w>
umfas senden</w>
Voraus setzung</w>
Ex press</w>
2 1.</w>
ac ting</w>
Mun ich</w>
ir y</w>
zw an
amerikan ische</w>
E D
ari o</w>
zi elt</w>
3 ,
re place</w>
flü ge</w>
X -
San ktionen</w>
Re du
untern ommen</w>
p .m.</w>
do kum
A N</w>
at titude</w>
am ente</w>
W ien</w>
un its</w>
Ant worten</w>
erneu er
di r</w>
Op tim
regel mäß
priv acy</w>
Wo chen
Boo k</w>
welt weiten</w>
pe op
west ern</w>
th an
si e
mär kte</w>
cl ing</w>
tax es</w>
ab sichti
st reichen</w>
g ü
sol ve</w>
histor ische</w>
genau so</w>
fin ding</w>
O b</w>
ra pi
G lück
an erkannt</w>
ser s</w>
behör den</w>
wichti ges</w>
wer fen</w>
än den</w>
dis covered</w>
a is</w>
N on
F as
fol gerungen</w>
n avi
Ko sten
Pro di</w>
-S ter
artic les</w>
Gei st</w>
tro tzdem</w>
Aus gang
n de</w>
be u
f es</w>
0 2</w>
Form ular</w>
T aus
fur niture</w>
be fassen</w>
Pla za</w>
i -
phi losoph
fac ed</w>
A U
To d</w>
Ex ec
ne ut
hil ft</w>
be ob
stre ets</w>
af ri
j un
d einer</w>
Techn ology</w>
c af
Stand ard
0 3</w>
civi li
her aus</w>
Allgem einen</w>
ro te</w>
di shes</w>
ser vers</w>
nah me
che ap</w>
ak tive</w>
Be sitz
conc ep
prof it</w>
hö here</w>
d inner</w>
c el</w>
Effizi enz</w>
3 D</w>
figh ting</w>
ch ann
Ta ke</w>
eng agi
Grund rechte</w>
dru gs</w>
Apart ment</w>
be handeln</w>
fi cial</w>
on i</w>
ci pl
Zu griff</w>
oblig ation</w>
regre t</w>
politi cians</w>
cri ption</w>
Rau m
lat ter</w>
appe al</w>
Mi kro
Untersuch ung</w>
Architek tur</w>
ell ed</w>
ak es</w>
spo t</w>
di ty</w>
tex ts</w>
kl einer</w>
Ver halten</w>
Kar ten</w>
G a
rejec ted</w>
r auch</w>
bei zu
Sit z</w>
ziem lich</w>
l st</w>
spra chen</w>
ho her</w>
Defin ition</w>
temperat ure</w>
Kü ste</w>
t ours</w>
eh mer
ruhi gen</w>
fantas tic</w>
compens ation</w>
appreci ate</w>
Berücksichti gung</w>
dan s</w>
B ör
Überein kommen</w>
v ie</w>
F ein
stre ben</w>
Ri ver</w>
7 00</w>
heal thy</w>
Po wer
gesp ielt</w>
for d</w>
dien ste</w>
sch lim
ph en
W he
T op
b ag
Er kenn
w alls</w>
ger äum
ver sorgung</w>
ko ordini
empha sis</w>
um n</w>
tra gung</w>
j emand</w>
const ant</w>
Tra di
ran k</w>
Wel come</w>
G ali
konkre ten</w>
t ent
Sch äden</w>
12 0</w>
ve get
emphasi se</w>
T atsächlich</w>
Kapit al
un den
recogn ise</w>
K auf
breit ung</w>
exten sion</w>
cent res</w>
will kommen</w>
G old</w>
exist s</w>
deci sion-
Bei fall</w>
in ary</w>
C oo
с т
arran gements</w>
Regi stri
betre ffen</w>
PD F</w>
er ror</w>
produc ing</w>
Grund sätze</w>
ni emand</w>
1 000</w>
refle ct</w>
mensch lichen</w>
Jo se
bure au
wat ch</w>
erhäl tlich</w>
e ds</w>
bu chen</w>
Pu tin</w>
bel on
Auf trag</w>
vorsch lag</w>
hand ling</w>
schn ell
fig ure</w>
Bri tain</w>
0. 000</w>
außer gewöhn
Prof ession
U ser</w>
O m
ck er
L ob
resol ve</w>
ob st
acc ur
R h
objec ts</w>
Cham ber</w>
tru th</w>
cy cle</w>
Sch ü
P aper</w>
schätz en</w>
suff ering</w>
li ers</w>
gi e
Vide o
Mein ungs
Leb ens</w>
ma ster</w>
help ed</w>
Ver träge</w>
U se</w>
man gel
re ds</w>
Pre ss</w>
fi ci
u ung</w>
aut onom
sen s</w>
oper ators</w>
herr scht</w>
beträ gt</w>
komm erzi
P ack
vis u
inten tion</w>
kar ten</w>
isch ung</w>
ei te</w>
ch em</w>
A gri
k al
it ely</w>
au dio</w>
Be dien
ein geb
I l
4 4</w>
ure ment</w>
b our</w>
produ kte</w>
pro file</w>
th ly</w>
spec tac
ö ster
Un gleich
sub stances</w>
sti gen</w>
heb ung</w>
ent decken</w>
ersch einen</w>
ens es</w>
Ab end
te es</w>
pro of</w>
comp ly</w>
L etz
intel lec
L ord</w>
Materi alien</w>
steu er
ma ß</w>
lo g</w>
c les</w>
bes or
par allel</w>
out put</w>
ausge stat
B au</w>
Asy l
Ak te
windi gkeit</w>
Sp ann
a x
künf tig</w>
Kon sequ
K ategorie</w>
ali zed</w>
Leit linien</w>
schri ft
ell o</w>
wh atever</w>
di d
I P
th e-
el i</w>
T est</w>
Maß nahme</w>
z in</w>
schließ t</w>
ed ly</w>
Nor den</w>
Gen ehm
Davi d</w>
aff airs</w>
N L</w>
mo bility</w>
k amen</w>
ah me</w>
Ver brechen</w>
Dienstleist ungs
dra wing</w>
beg onnen</w>
happ ens</w>
er öffnet</w>
bil dungs
valu able</w>
Sch ool</w>
disa ster</w>
cross- border</w>
Y u
Wer k</w>
re serve</w>
pre sident</w>
kulturel le</w>
sem in
inf o</w>
host els</w>
appe ared</w>
Ambi ente</w>
B at
ent lang</w>
Nach frage</w>
pl en
lar gely</w>
cre ative</w>
confir med</w>
An fragen</w>
z o</w>
uri es</w>
c ot
Di alo
ris ing</w>
in zwischen</w>
K ind</w>
recogn ised</w>
Cu stom
enter tainment</w>
applic able</w>
tu t</w>
ti l
fri end</w>
Wirtschafts -</w>
O hne</w>
führ ende</w>
bezieh ung</w>
natur ally</w>
Völ ker</w>
W here</w>
manag er</w>
Ru le</w>
y es</w>
dise ases</w>
renew able</w>
Wahr heit</w>
Landwir te</w>
Daten bank</w>
sch wei
kün fte</w>
al bum</w>
den den</w>
O ld</w>
ück en</w>
wesent liche</w>
Phot o
ti cket</w>
schri ft</w>
Saf ety</w>
D ort</w>
f ing</w>
enth usi
assi st</w>
wissen schaftlichen</w>
ur a</w>
Sch w
Pu er
k ern</w>
ubli n</w>
peri or</w>
lar s</w>
CO 2</w>
ar ance</w>
Sp i
eigen es</w>
trä chti
zusätz lichen</w>
för der
Ge danken</w>
E ssen</w>
op posed</w>
Hin der
gr enzen</w>
d rei
-Ster ne-
k ö
In stead</w>
Ab sicht</w>
exclu sively</w>
bes ei
d ining</w>
Autom ob
italien ischen</w>
coun ter</w>
A 3
kurz em</w>
form ul
Erwar tungen</w>
staat liche</w>
f tung</w>
person ally</w>
is ol
institution ellen</w>
sp ür
ch ain</w>
ach tung</w>
spr ing</w>
nä her</w>
et ri
Fern er</w>
out door</w>
interes siert</w>
frau d</w>
automati c</w>
4 3</w>
Z oll
feh l
milli ons</w>
Sch aden</w>
Japan ese</w>
ra d
W ash
Strateg y</w>
wat ers</w>
vil le</w>
ra sch</w>
cou ple</w>
F on
è s</w>
woh l
ati es</w>
angem essen</w>
bed ro
V .</w>
Minist ers</w>
sa una</w>
bur den</w>
beauf trag
schön sten</w>
ei ght</w>
Phi li
offici als</w>
ern st</w>
US D</w>
reach ing</w>
instal liert</w>
L O
F ei
D A</w>
whi lst</w>
vol ume</w>
ad en
lei sure</w>
impres sive</w>
fi es</w>
fa il</w>
thre at
pl ause</w>
ver ändert</w>
Mittel punkt</w>
kom b
char ges</w>
a side</w>
zentr alen</w>
ex t</w>
he avy</w>
determin e</w>
entwick elten</w>
Bra si
ey e</w>
ar ische</w>
Swe dish</w>
h t
invol ving</w>
au x</w>
qu is</w>
grundle genden</w>
eh nt</w>
construc tive</w>
o ds</w>
di ge</w>
U. S.</w>
enth al
the at
Entwicklungs ländern</w>
la y</w>
re v
Fischer ei</w>
ter s
m l</w>
ti z</w>
excep tional</w>
199 1</w>
Er leb
Bi bliothe
w us
sur v
Exper ten</w>
f ak
be ge
increas es</w>
ver än
pi eces</w>
cast le</w>
natür lichen</w>
gen i
198 9</w>
schwieri gen</w>
Host el
Altern ative</w>
jour ney</w>
y le</w>
Kap az
G ood</w>
neu esten</w>
ah nen</w>
u ters</w>
hervorra gende</w>
an i</w>
An griff</w>
critic ism</w>
Schwe den</w>
stär kt</w>
lei sch</w>
nach zu
Berat ung</w>
off ices</w>
Sho p</w>
zweifel los</w>
p il
Schen gen</w>
Ein stellung</w>
4 1</w>
tur ns</w>
freund lich</w>
Get rän
ini en</w>
et -
d ent
co her
rü stung</w>
ge fördert</w>
Beru fs
zi r
es day</w>
Char ter</w>
B R
verk ehrs
s and</w>
g eren</w>
St off
pro ve</w>
Entschei dungs
po st-
equ ally</w>
dis cipl
besitz en</w>
amoun ts</w>
Ge win
leb ens
Verbesser ungen</w>
ko stet</w>
Bade zimmer</w>
ini ons</w>
hosp it
Bei spiele</w>
ausgezeich nete</w>
Tag ung</w>
te u
per form</w>
en ab
emb our
col d</w>
ni emals</w>
mel den</w>
är m
S par
Fo to</w>
protec ting</w>
decor ated</w>
Prü f
ab len</w>
vor geseh
f ted</w>
sat lan
Verk auf</w>
i res</w>
ti que</w>
be stand</w>
zu erst</w>
comm and</w>
zw ungen</w>
le aving</w>
de par
Geor ge</w>
ung ser
lo vely</w>
Engli sch</w>
Nor men</w>
mand ate</w>
erheb lich</w>
der ing</w>
Spec ial</w>
passen gers</w>
ch ap
ad ly</w>
Sec re
M -
F A
D ublin</w>
s z
n i</w>
is er</w>
erweiter t</w>
L os</w>
Klim a</w>
5 .</w>
wachst um</w>
st ant</w>
dec la
O ver</w>
Bet ra
p on
kri ti
and els
bedeu ten</w>
west lichen</w>
ven tionen</w>
e ast</w>
residen ce</w>
off enen</w>
remo ved</w>
pol lu
Region al
obst ac
ob tained</w>
coun tr
D onn
m t</w>
h it</w>
Regi me</w>
Fen ster</w>
20 12</w>
unmittel bar</w>
traff i
ti ckets</w>
sicher ungs
peop les</w>
parl ament
do ors</w>
at ures</w>
Un gar
N O
b ol
at oren</w>
ma y
direc tives</w>
fin ished</w>
k rieg</w>
es n</w>
lie b
Vertei digungs
schn elle</w>
Lux embour
we ather</w>
teil nehmen</w>
brie f</w>
1 1.</w>
organiz ations</w>
invol vement</w>
Zus ätz
tri eben</w>
ri ed</w>
par ks</w>
k y</w>
ill enni
Wirk lichkeit</w>
tre at</w>
medi um</w>
la m</w>
masch inen</w>
wes halb</w>
ob je
Nah en</w>
tre aty</w>
La dies</w>
strategi es</w>
pass word</w>
hei m</w>
Anwen dungs
Can ada</w>
happ ening</w>
fa ther</w>
be zug</w>
comm un
H it
Ab stimm
zi er
höch sten</w>
ed ge</w>
W et
In tel
Bu cht</w>
Bes or
einfa chen</w>
ent standen</w>
Struk turen</w>
m i</w>
star ten</w>
zi ele</w>
pro ved</w>
comb ating</w>
Th eir</w>
Rech ts</w>
Agrar politik</w>
blu e</w>
Unter schied</w>
ausgezeich neten</w>
kur ze</w>
allgem ein</w>
eu ro
depen ds</w>
Mün chen</w>
bahn hof</w>
berechti gt</w>
le ch
sex ual</w>
par ents</w>
M em
Aus stattung</w>
stri c
Kommunik ations
main tained</w>
gesch äf
ch ers</w>
fle et</w>
fe e</w>
dies el
ban ken</w>
umfas sen
blo g</w>
Bo den</w>
Web sites</w>
ver langt</w>
V an</w>
Zer ti
ey es</w>
d ation</w>
r ating</w>
W affen</w>
Regi erung
al ed</w>
rema ining</w>
contri butions</w>
A b</w>
sc lub</w>
grundle gende</w>
bemü ht</w>
st ag
T ar
produ ziert</w>
US B</w>
laun ch</w>
kon trolle</w>
Tour ismus</w>
cre ates</w>
chine sischen</w>
auf zunehmen</w>
Telef on
t ter
or er</w>
er maßen</w>
defin e</w>
Ratsvor sitz</w>
organisi ert</w>
m än
ent deck
Th rou
Du sche</w>
Croati a</w>
col our</w>
ursprün glichen</w>
sto ßen</w>
issu ed</w>
connec tions</w>
renov ated</w>
di ed</w>
ab road</w>
Ma y
occa sion</w>
balcon y</w>
akti vieren</w>
Wech sel
R S
Hal b
AN D</w>
communic ations</w>
Empfeh lung</w>
mus ste</w>
Well ness
Dor f</w>
Masch inen</w>
it i</w>
F lash</w>
ir ing</w>
h all</w>
A ction</w>
entscheiden d</w>
ben e</w>
Vi sion</w>
ti ken</w>
prec ise</w>
kehr en</w>
disch arge</w>
fal sch</w>
Kohä sions
di agno
D em</w>
10 -
komm unik
Hostel sclub</w>
sch ule</w>
me at</w>
deta illi
Bet re
dr ink</w>
ar tigen</w>
re in</w>
Stell ung</w>
prepar ation</w>
el er
R -
sat zes</w>
et t</w>
An bieter</w>
weis ung</w>
mean ing
sp anischen</w>
K ing</w>
Be stellung</w>
Führ ungs
p lu
organiz ed</w>
leg ungen</w>
g y
dat en
Be fu
zugän glich</w>
rapporte urs</w>
certain ty</w>
tw o-
Kre u
GN U</w>
Ausgang spunkt</w>
gn e</w>
ung st
divi ded</w>
restri ctions</w>
W are</w>
Ro bert</w>
Je des</w>
riesi gen</w>
Re volution</w>
re serves</w>
mon um
Gesch m
ent re
Schri ft
surround ings</w>
require ment</w>
v ast</w>
k top</w>
ge prä
ass ure</w>
St ei
Am ts
4 .</w>
resol ved</w>
mark t
hab t</w>
sti l
behör de</w>
Pf licht</w>
Konfer enz
Haf en</w>
ho ff
b ou
adv ent
stre am</w>
Kam era</w>
min uten</w>
en de
d ritte</w>
Kri min
repe at</w>
an wes
Überzeu gung</w>
pos ing</w>
do esn</w>
um zusetzen</w>
a e
Proble ms</w>
an o
clas sic</w>
il er</w>
collec tive</w>
G et</w>
oh n
mess ages</w>
T O
ro ads</w>
pro hi
abgel ehnt</w>
Kan n</w>
Ko operation</w>
i x</w>
Künst ler</w>
Air bus</w>
deb ates</w>
c able</w>
f es
bis her
defin itely</w>
R in
m us</w>
Bu dap
grat ulieren</w>
and elt</w>
own ers</w>
Mas sen
For t
uni cip
Kon trol
der artige</w>
omm enen</w>
Krank heiten</w>
gl ück
ber ge</w>
Immobili en
go s</w>
E Z
Proje kten</w>
identi fy</w>
befür wor
Pun kten</w>
wettbewer bs
ad voc
T rau
verurs acht</w>
lau tet</w>
US S</w>
B ol
h ü
at em
contrac ts</w>
0 4</w>
über nimmt</w>
regul atory</w>
D es</w>
den ten</w>
ri sts</w>
re turned</w>
re d
hö her</w>
et h</w>
reg ularly</w>
m igration</w>
tim edi
own er</w>
Luxembour g</w>
Bulg aria</w>
äh r</w>
o th</w>
lü ck</w>
g lo
ä r</w>
tig te</w>
feh lt</w>
a stri
An gst</w>
schi cken</w>
co ast
bi ke</w>
betreff enden</w>
Verbin dungen</w>
ink lu
In done
op inions</w>
UN -
har m
Steu ern</w>
on ic</w>
kon tinu
foc used</w>
wirtschaf tlicher</w>
Mitglied schaft</w>
Emis sionen</w>
sign s</w>
m ist
invest ors</w>
te en</w>
extre m</w>
eu er</w>
C .</w>
rit t
vor genommen</w>
ti erten</w>
lat z</w>
character istics</w>
4 6</w>
wi tn
f em
Ab schnitt</w>
st opp
wirk sam</w>
to b
s ligh
ate ful</w>
Mu sic</w>
4 7</w>
erlau ben</w>
Mob il
h am
hard ware</w>
dar y</w>
P RO
re solutions</w>
le u
funktion ieren</w>
system en</w>
s .</w>
masch ine</w>
la y
def end</w>
Gerä te</w>
Ab kommens</w>
an statt</w>
zu legen</w>
wirk lichen</w>
p fen</w>
Verf assungs
wor se</w>
Fron t</w>
sch afft</w>
liber alisation</w>
ass ungen</w>
Harmon isierung</w>
w u
b ungen</w>
Sch ei
dri ver</w>
T yp
Ar z
viel er</w>
Un der</w>
fül lung</w>
Po st</w>
verschieden er</w>
Gep ä
Erhol ung</w>
R ub
wirk ung</w>
gef ähr</w>
fac ts</w>
Ma c</w>
Al ter</w>
ten e</w>
inten d</w>
stit utes</w>
fast er</w>
g mati
er ei</w>
be kämpfen</w>
M ann
durch zuführen</w>
dro p</w>
ü sse</w>
künf tigen</w>
Exec utive</w>
voll ständige</w>
li qui
komm e</w>
er fahr
contin ent</w>
ME Ps</w>
Frem den
transpor tation</w>
proper ties</w>
Jav a</w>
kein es
Veranstal tung</w>
gla d</w>
Por t
Geb rauch</w>
hund reds</w>
IC H
ut tle</w>
seh e</w>
i ties</w>
am az
Far be</w>
K üh
reali stic</w>
ko st
So vi
M ü
invol ve</w>
cover ing</w>
conflic ts</w>
Beh in
B lack</w>
öster reich
lin gen</w>
frei wil
forder e</w>
car bon</w>
prou d</w>
Be weis</w>
Al li
Klas se</w>
zu ge
ab and
El tern</w>
st ück</w>
sich ere</w>
Mar ina</w>
ann er</w>
Mittelme er
awar eness</w>
Wil l</w>
Krank en
Kon kur
top ic</w>
ethn ic</w>
ch a
p lug
Rumän ien</w>
impres sion</w>
e chten</w>
Li fe</w>
Kro ati
Fähi gkeiten</w>
rah men</w>
Vi et
S hop
Net z</w>
Aus führungen</w>
conduc ted</w>
Poli sh</w>
Ma astri
um geben</w>
sti sch</w>
low ak
be wäl
P lug
Fil m
re di
erg riffen</w>
R em
ob li
Ho li
reich ung</w>
facilit ate</w>
Ver ring
M ens
Gest altung</w>
un eingeschrän
jo ined</w>
he ating</w>
Sa una</w>
Entwicklungs länder</w>
wach sen</w>
pla ys</w>
europ a</w>
su ites</w>
star ts</w>
oper ational</w>
m ung</w>
T isch</w>
Partn ern</w>
F is
E ur
Wir d</w>
R an
Verhand lungs
v on
sinn voll</w>
se at</w>
rupp en</w>
de als</w>
aufge fordert</w>
under stood</w>
gro w</w>
proble mati
Proc edure</w>
li ft</w>
al co
up dated</w>
frequ ently</w>
displa yed</w>
in o
Re form
Aus nahme</w>
sett ings</w>
confir m</w>
Bo x</w>
A ssi
kontinu ier
tan e
be zahlen</w>
Ge gend</w>
depen ding</w>
. org</w>
re min
lic ense</w>
Struktur fonds</w>
kur zen</w>
I C</w>
Buch ung</w>
wor l
n ischen</w>
la stung</w>
famili ar</w>
Ratsprä sidentschaft</w>
nachhal tigen</w>
kurz fris
perform ed</w>
Slo v
produc tive</w>
in habit
Konfli kt</w>
prin ting</w>
ni ghts</w>
be absichti
L as</w>
5 2</w>
effec tiveness</w>
Änderungsanträ gen</w>
ent -
exp lic
bau t</w>
. 000</w>
schlä gt</w>
fir stly</w>
Aus stellung</w>
Ele ment</w>
An rei
mo stly</w>
mi d
Somm er
Sta at
Überein stimmung</w>
kl aren</w>
for schung</w>
H en
gun sten</w>
ru b
oll s</w>
ehr gei
Stra ß
ver wand
d ating</w>
gi gen</w>
vis ual</w>
phen om
gn ü
gespeich ert</w>
ann ehmen</w>
Au stausch</w>
9 -
f estival</w>
Program men</w>
u. a.</w>
R and
Institu tion</w>
A ward</w>
ma chte</w>
cust oms</w>
T enn
N ein</w>
L t
ver trag</w>
Vorsch lägen</w>
Ä r
tn is
av ec</w>
sub mit</w>
beschrän kt</w>
fra g
Th omas</w>
akti ven</w>
dem anding</w>
aus geschlossen</w>
up -
ti an</w>
some what</w>
is o
ch est
a c</w>
T om
Nach richten</w>
er ör
clu bs</w>
acc u
sch em</w>
Sec ond</w>
Schwer punkt</w>
w asser</w>
electri city</w>
Fit ness
Vie w</w>
M esse</w>
Host els</w>
r on</w>
h n
eig net</w>
Mon etary</w>
L as
ut ing</w>
ver bringen</w>
ber ech
ans wers</w>
18 .</w>
num mer</w>
Um gang</w>
min ority</w>
er mu
inter ior</w>
bu ch
Wash ington</w>
ultim ately</w>
früh eren</w>
decision- making</w>
Geschäf te</w>
uni versal</w>
notwendi ge</w>
Ent fer
no ted</w>
interess ante</w>
ony mous</w>
g keits
beglück wünschen</w>
si ght</w>
m utz
kü mm
gh ter</w>
durch führen</w>
Stra ßen</w>
in ations</w>
m essen</w>
g ine</w>
Re al</w>
mo dule</w>
Ameri kan
Aus führung</w>
A do
li brary</w>
k ings</w>
ange l</w>
mini str
b lood</w>
ar ab
er b
Gent oo</w>
E D</w>
si sch</w>
s auber
la ges</w>
emer gency</w>
gran t</w>
Kilom eter</w>
Drit tens</w>
te ams</w>
Ph one</w>
lie ß</w>
Stru c
ein gerich
Wissen schaft</w>
Win d
lan s</w>
O s</w>
techni ques</w>
pal ästinen
g age</w>
Schlaf zimmer</w>
ge ographi
besch le
H all</w>
ben utz
abo li
t es
in flation</w>
g old</w>
me ant</w>
anspru chs
Brazi l</w>
imp lic
ß te</w>
ti erte</w>
them ati
Mens ch</w>
verabschie det</w>
person nel</w>
Whe ther</w>
minist ers</w>
SM Es</w>
D ri
so dass</w>
war ran
pro p
he ber
ge o
f ot
zu lassen</w>
dri vers</w>
visi ted</w>
s k</w>
Ma ß</w>
Fra mework</w>
st amm
dra w
Ur spr
Coo k
provi der</w>
Dy nam
Arbeitsplätz en</w>
mas sage</w>
zu gunsten</w>
parli aments</w>
as h</w>
De f
Über setzung</w>
hervor heben</w>
star s</w>
Dritt ländern</w>
pla y
lich sten</w>
Deut schen</w>
5 1</w>
fül len</w>
th il
pro mp
C yp
An d
C D-
in n</w>
wel fare</w>
durch schnit
sch -
cro ss</w>
in ser
einzigar tige</w>
För der
is lands</w>
bestä tigen</w>
zu ständigen</w>
lo unge</w>
host el</w>
Y o
Mex ico</w>
Ab hängi
angemessen e</w>
zü ge</w>
accompan ied</w>
Sat ur
verhin dert</w>
re ported</w>
geh ende</w>
an sch
aus gesprochen</w>
Konta kt
statisti cs</w>
aus gesetzt</w>
Ad di
stu dio</w>
pre fer</w>
l i</w>
chem ical</w>
care er</w>
nor thern</w>
Lu ft</w>
Investi tions
Lan g
gr ateful</w>
bour g</w>
z ei</w>
ex ter
met al</w>
li sts</w>
bo und</w>
rus sischen</w>
Prin zipien</w>
Gleich gewicht</w>
promis es</w>
fol lows</w>
S emin
Kompon enten</w>
w inner</w>
lo oked</w>
Plan ung</w>
Cyp rus</w>
or -
gn issen</w>
f an</w>
contra st</w>
vor her</w>
the ore
far m</w>
Ra dio</w>
wei le</w>
de cre
Besonder s</w>
blo ck
Fak toren</w>
mal erweise</w>
m ir
ge prüft</w>
be an
subsi dies</w>
v alley</w>
sec on
eb enen</w>
win dows</w>
Y es</w>
Verring erung</w>
Wer bung</w>
R und
s ac
relax ation</w>
reich s</w>
Al les</w>
t ats
passi ert</w>
deli ghted</w>
Fir men
rä umen</w>
emp f
L ev
satis fied</w>
Über setz
Portu gu
Bezieh ung</w>
win es</w>
l ler</w>
inv ite</w>
V iz
läss lich</w>
Vereinbar ungen</w>
te ste</w>
be vorzu
D ou
auf nehmen</w>
re k
indic ated</w>
wom an</w>
struk turen</w>
er läu
cor ner</w>
cont acts</w>
Bei träge</w>
e astern</w>
Be am
mul tin
Ger ichte</w>
p m</w>
Sa int</w>
ver gleich
K as
Ch urch</w>
vi erte</w>
un möglich</w>
B IP</w>
Außen politik</w>
perc ent</w>
da fri
m ation</w>
Op tionen</w>
ra tions
k raten</w>
Schnit t
M ur
an wen
W ein</w>
terror ist</w>
i en
chann els</w>
Son ne</w>
ti zen</w>
defin iert</w>
Sch luss</w>
Plen um</w>
Gesell schaften</w>
eh e</w>
fli ghts</w>
arri ve</w>
My SQL</w>
verring ern</w>
a w
new ly</w>
I .</w>
A v
visi ting</w>
conci liation</w>
Hei mat
Hand eln</w>
7 2</w>
func tioning</w>
cor ruption</w>
C openhagen</w>
tou rists</w>
recommend ation</w>
höh eren</w>
fe ed</w>
Fre it
si m
p ft</w>
n etz
ent steht</w>
L ö
Ein stellungen</w>
Chin as</w>
exc iting</w>
zi ge</w>
Je de</w>
Fest legung</w>
judi cial</w>
acti vely</w>
wid ely</w>
vac ation</w>
sch einen</w>
Budap est</w>
vis a</w>
t ance</w>
mat ch</w>
&apos; ve</w>
lie f</w>
kat astrop
des k</w>
Transpor t
Platt form</w>
Dro gen
Con gress</w>
wel chem</w>
ent wurf</w>
en ergi
te a</w>
entran ce</w>
Gesprä che</w>
t wi
im posed</w>
decla red</w>
cos y</w>
sk o
pollu tion</w>
fir ms</w>
Re port</w>
verlei hen</w>
dire kten</w>
dep lo
care ful</w>
b all
B and</w>
lus s
d. h.</w>
bilater al</w>
Wün sche</w>
Mor gen</w>
is ra
h ungen</w>
Geh eim
sho wing</w>
d al</w>
bur ger</w>
Indi vidu
E dition</w>
schle cht</w>
ro ck</w>
supp le
wün sch
fa vor
Zus atz
expl ore</w>
8 6</w>
co ok
Fri day</w>
C N
inhabit ants</w>
b ly</w>
after noon</w>
Bemerk ungen</w>
gar dens</w>
un gefähr</w>
ich ts
is tic
invol ves</w>
ed oms</w>
L E</w>
Br and
ver ändern</w>
Pra gue</w>
Neu e</w>
Garanti e</w>
rech tliche</w>
re main
A ct</w>
über wach
j ap
uni versi
sk a</w>
si erte</w>
geb iete</w>
configu ration</w>
P et
M eg
Aus gabe</w>
2. 0</w>
äum en</w>
m assi
investi g
gestal tet</w>
erreich bar</w>
demonstr ated</w>
u a</w>
speak er</w>
sam es</w>
exper t</w>
f lug
winn ing</w>
geb oren</w>
Tre k</w>
Nor di
be we
No ch</w>
v ince</w>
tats äch
i ens</w>
pre t
gehöri gen</w>
di ch</w>
aci ón</w>
Ear th</w>
Ado be</w>
form al</w>
d less</w>
Regierungs konferenz</w>
P O
A ktion</w>
woll ten</w>
rei fen</w>
Ne ws</w>
steh e</w>
occ ur</w>
magn ific
erleich tern</w>
Per haps</w>
her itage</w>
ausge führt</w>
Son y</w>
g in</w>
Con su
würdi gkeit</w>
declar ation</w>
Tsch ech
main taining</w>
ten dlich</w>
nahe zu</w>
Prote ction</w>
sorgfäl tig</w>
ass ets</w>
Per sön
Minder heiten</w>
new sp
intellec tual</w>
fashi on</w>
compet ent</w>
Fre e
a j
Zentral bank</w>
Vertei digung</w>
Kon sul
Fun ds</w>
Des wegen</w>
Haf tung</w>
mot or</w>
E d
tro ub
Zw ischen
Ad minist
l ying</w>
spo ken</w>
Zi ffer</w>
F ru
tran sition</w>
collabor ation</w>
re ject</w>
boo t</w>
begrü ßt</w>
ou red</w>
gi o</w>
ck -
Kon figu
Gi ven</w>
ra c
on going</w>
isra eli
acc o</w>
St ück</w>
stri ct</w>
le bt</w>
ear th</w>
avo i
Sovi et</w>
Jus tiz</w>
lig ent</w>
ori ented</w>
exklu si
L y
func tional</w>
Bal tic</w>
remo te</w>
Res ol
ten nis</w>
quar ter</w>
mer ken</w>
hinzu fügen</w>
resi stance</w>
ati ver</w>
Pi az
demonstr ate</w>
dan k
Kur z
mitt ler
desi red</w>
Wei ß
J e</w>
ran g</w>
expan sion</w>
sett lement</w>
ge trenn
fizi eren</w>
schwi er
pl enty</w>
C it
pris on
dr au
Ver bot</w>
B rie
high- quality</w>
geh ens
Veröffent lichung</w>
Grün dung</w>
re volu
ell ers</w>
ben den</w>
Sor gen</w>
gew inn
Hei m
ör ung</w>
s .com</w>
präsen tieren</w>
en h
D ie
them e</w>
pl ate</w>
mor ali
12 .
sol ange</w>
g ungs
Ara b</w>
überzeu gen</w>
es ch
un ent
è re</w>
P ort</w>
fit ness</w>
fil ms</w>
chan nel</w>
An merk
star tet</w>
me e</w>
bemü hen</w>
um ini
letz tlich</w>
bes timmen</w>
E M</w>
Be weg
ta gen</w>
rapi dly</w>
m use
ann i
to s</w>
st em</w>
traffi cking</w>
sta at</w>
fac ility</w>
be stehende</w>
Daten schutz
docum entation</w>
appe arance</w>
K e
et ed</w>
Ver pack
Soll ten</w>
perfe kt</w>
ee ded</w>
R om</w>
sty lish</w>
heu tige</w>
em en</w>
Mark tes</w>
vie wed</w>
mo tiv
l ust</w>
den heit</w>
commit tees</w>
Wissen schaft
Stu denten</w>
Ein beziehung</w>
eb ene</w>
Pol y
yst em</w>
sätz en</w>
on e
sta un
de partment</w>
Ques tion</w>
O r</w>
Chanc en</w>
Aufenth al
gener ated</w>
wh ol
R est</w>
o st
passen ger</w>
ge zwungen</w>
aussch uß</w>
ru g</w>
recor ded</w>
ma kers</w>
fra me</w>
regar ded</w>
Wer be
Portugu ese</w>
Ch arta</w>
g allery</w>
Zy per
Mob ile</w>
educ ational</w>
dist ingu
15 .</w>
arti st</w>
conclu ded</w>
ver ehrte</w>
pos sibly</w>
oh n</w>
Mo z
Er inn
ra w</w>
Um feld</w>
Sk ype</w>
gel tenden</w>
fre m
d ele
Ins besondere</w>
E-Ma il-
i on
G au
-F i</w>
t ack
justi fied</w>
Sub sidiar
KM U</w>
A sh
sh aring</w>
Soll te</w>
betri eben</w>
Des cription</w>
Host el</w>
D res
Mark eting</w>
wer tung</w>
glau b
awar ded</w>
ex it</w>
Ap plause</w>
ges u
con taining</w>
c utting</w>
Tra g
bot tom</w>
Ex pl
grenz ung</w>
countr y
ch air
Mobili tät</w>
mor al</w>
found ation</w>
be ten</w>
argum ent</w>
J ames</w>
g ot
dau er</w>
re placed</w>
to i
tar ge
erinn ert</w>
ap art</w>
G -
er ce</w>
ha ir</w>
pic tu
ber au
vor legen</w>
Softwa re
5 4</w>
Wi th
Bal kon</w>
de pendent</w>
akzep tabel</w>
Preis en</w>
zeichn is</w>
y o</w>
stan z</w>
mi x</w>
bri tische</w>
dep th</w>
ab or
Ma j
la sting</w>
re plac
si erten</w>
gh ly</w>
ber aten</w>
I V
emerg ing</w>
dür fte</w>
Web seiten</w>
individu elle</w>
Ziel en</w>
hi ll
N ic
ier ungs
plan et</w>
lok ale</w>
fer ner</w>
adv is
to wns</w>
mo ther</w>
An la
Euro zone</w>
P lus</w>
Identi tät</w>
s ung</w>
fäl lig</w>
is en</w>
flo ws</w>
con tradi
T own</w>
Eng ine
Untersuch ungen</w>
beträ ch
B C</w>
steu erung</w>
instal lieren</w>
Vor gehen</w>
Berei t
ähr t</w>
sa ving</w>
respec ted</w>
je gliche</w>
over come</w>
cop yright</w>
assu me</w>
Comp uter
Ver sionen</w>
M all
Hung ary</w>
l ac
äuß ert</w>
te sted</w>
zu gang</w>
Qu ar
Kur s</w>
h et</w>
ci an</w>
D ub
se where</w>
d opp
War en
Freih eiten</w>
ro utes</w>
min orities</w>
ab gestimmt</w>
tack le</w>
credi bility</w>
verk aufen</w>
ti scher</w>
spectac ular</w>
Ein schrän
ver dient</w>
tor al</w>
T S</w>
Selbst verständlich</w>
Po wer</w>
Nor thern</w>
IT -
ameri ka</w>
Vorsch lags</w>
Puer to</w>
er end</w>
ent es</w>
ben en</w>
woh nen</w>
par tly</w>
erfolgreich e</w>
cri mes</w>
t at</w>
profession als</w>
he at</w>
determin ation</w>
ame ters</w>
Tra ining</w>
De fiz
ver halten</w>
certi fic
Wachst ums
Up date</w>
M B</w>
E duc
satisfac tion</w>
organisi eren</w>
vis ory</w>
proz esses</w>
kti ver</w>
fl at</w>
G las
übri gens</w>
stron ger</w>
ein ig</w>
Belgi um</w>
er setzt</w>
ac ted</w>
New sletter</w>
F ischer</w>
W omen</w>
ex por
spann ung</w>
pu ts</w>
entscheiden de</w>
en for
Krä fte</w>
Wer ke</w>
program ms</w>
di t</w>
Le gi
Ger man
Bar s</w>
größ er</w>
dire kte</w>
individu ellen</w>
di ver
L ist
den kt</w>
Stock hol
Sign al</w>
uli ert</w>
gra f
Kon sens</w>
Gericht shof</w>
trans actions</w>
occa sions</w>
verur teilt</w>
verk auft</w>
s u</w>
Re de
Arbeits markt</w>
vorhand enen</w>
sch eme</w>
Poli tiken</w>
mar quis</w>
entwick elte</w>
T ol
Di ffer
A ID
för derung</w>
zus ehen</w>
isch -
bezieh ungen</w>
Mitarbei tern</w>
zent ral</w>
tran satlan
A sien</w>
imm igrants</w>
Ver breitung</w>
Studi en</w>
high ligh
einhei tlichen</w>
Fund ament
manufactur er</w>
d s
U -B
Pro vi
t ö
on ien</w>
Res pe
Net work</w>
redu zieren</w>
li z
f ur</w>
correc tly</w>
beru ht</w>
O der</w>
Internet -
gerä te</w>
f ans</w>
minist eri
horiz on
re form
f on
beein druck
gewähr t</w>
P act</w>
eth eless</w>
bo ten</w>
di n</w>
Wi thin</w>
es cap
6 .</w>
sch ed
Amend ments</w>
enjo yed</w>
äuß ern</w>
t ables</w>
re cip
erheb liche</w>
week end</w>
vor stellen</w>
cas h</w>
begrenz t</w>
Zw ecke</w>
as sum
Ansch luss</w>
n on</w>
k ter</w>
bekan nte</w>
au en</w>
arri ved</w>
W ell</w>
S how</w>
strateg ischen</w>
Be au
be kämpfung</w>
Besor gnis</w>
üh r</w>
sich eren</w>
ol o</w>
grundsätz lich</w>
gerä t</w>
Krank heit</w>
E X
Des k</w>
quar ters</w>
li st
ch amp
E V
Rechn ung
Nach richt</w>
C hil
ver i
sti ll
geh enden</w>
der er</w>
sel be</w>
hous ing</w>
s q
Wi -Fi</w>
inklu sive</w>
enst adt</w>
Sp ace</w>
Pal äst
val ent</w>
mo ti
liber al</w>
sligh tly</w>
on al</w>
Isra eli</w>
k g</w>
c i</w>
br ut
F ood</w>
mil es</w>
f erung</w>
Can on</w>
adju st
G lei
wa ff
sen ding</w>
correspon ding</w>
r ental</w>
inter essi
ear n</w>
adul ts</w>
sion al</w>
Städ ten</w>
Vor stellung</w>
speci ally</w>
ist a</w>
drin ks</w>
Fol lowing</w>
D on</w>
legi timate</w>
it al
con fer
Einwander ung</w>
p ac
constitu tional</w>
P age</w>
pf lan
T ER
E P
ver hand
prä z
neigh b
ackno wled
Gewi cht</w>
S ein</w>
sub sidi
Kapit el</w>
soli d</w>
off ic
ni er</w>
C las
compon ent</w>
Fre unden</w>
gän ge</w>
beschäf tigen</w>
bel an
angebo t</w>
W illi
air -
ruhi g</w>
einfach er</w>
Ho hen</w>
steu er</w>
genü gend</w>
sub sidiar
los ses</w>
é es</w>
y outh</w>
p -
inform ationen</w>
sha res</w>
nun mehr</w>
distri buted</w>
Ex tre
Bedro hung</w>
ni a</w>
inde x</w>
P lätz
K yo
C R
drück en</w>
supp liers</w>
Tai wan</w>
Men sch
Medi en
groß zügi
Th urs
Automob il
ber ühr
Her b
provi ders</w>
ban king</w>
antwor tet</w>
subsidiar ity</w>
sen sible</w>
cu ts</w>
up dates</w>
Schul en</w>
k el
auff or
ange gebenen</w>
D ü
oh len</w>
Vide os</w>
Br un
congrat ul
offizi ellen</w>
di vision</w>
be k
S z
de struction</w>
D ep
O F</w>
hin aus
D ach
magnific ent</w>
N am
Bemerk ung</w>
j enen</w>
constitu tion</w>
Z one</w>
w rote</w>
cir cul
L ate
lä ßt</w>
kon z
identi fied</w>
ck s
drück t</w>
E B
ü bt</w>
soci e
effe ktiv</w>
be währ
an er</w>
B y
PP E-
tax ation</w>
eg al</w>
auth ori
Mal ta</w>
c us</w>
Erzeu gnisse</w>
F al
System en</w>
Energi ever
Den k
Benutz er
7 .</w>
zusammen arbeiten</w>
addres ses</w>
With out</w>
Atlan tic</w>
mari time</w>
el sewhere</w>
ec omm
aus sprechen</w>
Selb st</w>
spra ch</w>
glob alisation</w>
k lim
interpre tation</w>
behavi our</w>
ô tel</w>
wer ken</w>
j o</w>
geb ieten</w>
consider ing</w>
ck y</w>
ges s
event ually</w>
Pot enzi
Au ge</w>
vor bereitet</w>
Woh nung</w>
end ung</w>
bel ast
außerord entlich</w>
a gem
N I</w>
Euro pol</w>
we ge</w>
franzö sische</w>
exc eption</w>
T on
we ar</w>
ter ed</w>
fün f
Bel ast
verstär ken</w>
behand lung</w>
V AT</w>
Joh ann
fil ter</w>
P y
secre t</w>
ie ßen</w>
ensu res</w>
Mar ke</w>
A h
Zusätz lich</w>
Stand or
mil k</w>
herr sch
gew onnen</w>
erfolgreich en</w>
du l</w>
electri c</w>
A D</w>
verbin den</w>
Stra s
ex ports</w>
K auf</w>
ei ra</w>
7 1</w>
p ar</w>
er ischen</w>
Proto k
auf s</w>
Th ail
zei ge</w>
ver änder
a x</w>
et es</w>
ex emp
dom ain</w>
b attle</w>
Sch lu
rech tzei
l ers</w>
Se ktoren</w>
N ap
Ern ähr
D ER</w>
leh nung</w>
on ing</w>
mod ell</w>
Wer t
Gra n</w>
An im
6 8</w>
strai ght</w>
Kyo to</w>
tradition elle</w>
be kräf
Struc tural</w>
Kontrol len</w>
Hung arian</w>
prepar ing</w>
S V</w>
vi rus</w>
sch efs</w>
extra ordinary</w>
encoura ging</w>
Sun day</w>
N eben
jen er</w>
Vier tel</w>
un for
sch e
po t</w>
er hielt</w>
en em
di gn
Her z
Arz nei
unver züglich</w>
kehr t</w>
K en
V alley</w>
Mis sion</w>
wissen schaftliche</w>
ru ms</w>
her zustellen</w>
gener ate</w>
erle bt</w>
Komm un
Per form
E ch
deci sive</w>
Dol om
pol y
Blo g</w>
5 3</w>
propos es</w>
Thir dly</w>
se -
o tive</w>
i ken</w>
cour ts</w>
s low</w>
Ein w
17 .</w>
ism us
einger eicht</w>
wiederhol en</w>
person en
V el
Eisen bahn
verantwor tungs
ven tion
j i
5 6</w>
Wohl stand</w>
Nach hal
li ked</w>
th ro
st un
ali for
Balkan s</w>
sc ene</w>
r d</w>
o ten</w>
Is lam</w>
vulner able</w>
re struc
geschn it
defic it</w>
col lap
auth enti
Char les</w>
kompli zi
d as
fu sion</w>
dis k</w>
ange wand
Salz burg</w>
K it
Ex ist
la bel</w>
Bild schir
t liches</w>
hol ders</w>
ci tizen</w>
ar my</w>
ap p</w>
Y ear</w>
Bereit stellung</w>
ev al</w>
geb rau
Ein kommen</w>
sch m
p or</w>
d rop
hi p</w>
did n</w>
Vor der
Distri bution</w>
6 6</w>
every day</w>
Er stellung</w>
Vor sitz</w>
Li ke</w>
Ha ar
ehm ern</w>
viel es</w>
sh ar
enh ance</w>
S timm
S m
top ics</w>
lo ck</w>
entscheiden der</w>
shor t-
sch u
enth alt</w>
Dem on
bei getragen</w>
su rely</w>
besch rieben</w>
Lie ferung</w>
Besch luss</w>
um in
iz za</w>
h em</w>
plen ary</w>
pack aging</w>
bon us</w>
complic ated</w>
sub stance</w>
groß em</w>
zu tage</w>
utt gar
us ern</w>
port al</w>
su gar</w>
luxuri ous</w>
uni versity</w>
system ati
U C
Tou risten</w>
Pak ete</w>
ta gs</w>
supp lies</w>
fer tigen</w>
s elling</w>
spo ke</w>
finanzi ert</w>
Spa ß</w>
Ein heit</w>
m ern</w>
less ons</w>
ak ing</w>
accur ate</w>
W LAN</w>
L ok
ähn lich</w>
vir tual</w>
kl eines</w>
inv est</w>
Cli ent</w>
zu gr
inclu sion</w>
stan de</w>
fa ßt</w>
fän ger</w>
N os</w>
ge fallen</w>
exam ine</w>
ed ral</w>
Ungar n</w>
direc ted</w>
The ater</w>
Minister prä
G lau
Ex change</w>
20 -
Män nern</w>
pat ent</w>
connec t</w>
bis lang</w>
Ass embly</w>
ign ori
8 .</w>
ver st
pro ven</w>
mi x
fahr er</w>
Ba y
wunder schönen</w>
Vol k
St uttgar
Katastrop he</w>
ra cy</w>
Schluss folgerungen</w>
B lan
re vi
ru f</w>
Ma in</w>
speci fied</w>
elektron ischen</w>
bestimm ter</w>
i tive</w>
gu n</w>
exc essive</w>
Thurs day</w>
Gar den</w>
Frie d
CO N
therap y</w>
den de</w>
M angel</w>
ri de</w>
N ig
C ra
ut ation</w>
betei ligen</w>
ber at
K ür
vide os</w>
the ory</w>
en abled</w>
der te</w>
Er wä
schn ei
ge stattet</w>
Sta ates</w>
Qu ad
An sichten</w>
im pose</w>
appoin tment</w>
suff er</w>
A ca
ver mitteln</w>
thil fe</w>
in ess</w>
integri ert</w>
concep ts</w>
R ap
Li ve</w>
ch am
P ul
Besch rän
16 .</w>
st olz</w>
re chn
l y-
ing s
ren owned</w>
erzeu gt</w>
Ko oper
A mon
zi elen</w>
kon fron
ab sence</w>
de posit</w>
Ko ordin
einzigar tigen</w>
fore sts</w>
unver gess
Genehm igung</w>
Brasi lien</w>
ten tion</w>
men ade</w>
B ö
Ü bri
shi pping</w>
descri ption</w>
adop ting</w>
Lux em
wech sel</w>
at tri
Sich erung</w>
hund red</w>
gn er</w>
Ein wohner</w>
Ä gyp
great ly</w>
g ut
Kon text</w>
E p
Dig ital</w>
Ci vi
ge kenn
sav ings</w>
Poli zei</w>
mensch liche</w>
direc tory</w>
Z wei</w>
V ater</w>
N avi
proce ed</w>
zügi gkeit</w>
zi vi
Pat ri
in su
en kt</w>
de x</w>
ch st
BM W</w>
verbin det</w>
sol ches</w>
dru g</w>
bed ing
ab use</w>
Rechts grundlage</w>
Kon to</w>
tradi tions</w>
her vor</w>
cent uries</w>
anwes end</w>
W äl
Mon it
n ör
investi eren</w>
hand le</w>
fin ish</w>
car rying</w>
W är
gesch ichte</w>
ange geben</w>
S imp
K ub
Be sides</w>
re sear
depar ture</w>
ap plying</w>
la yer</w>
hei m
Z ul
D al
won der</w>
sugges tions</w>
privi leg
g li
ga ined</w>
La w</w>
volun tary</w>
unic ations</w>
gi ble</w>
Mod elle</w>
Gra d</w>
Dat ei
sol ely</w>
propos ing</w>
hä user</w>
ck en
ali ties</w>
Fer r
D N
ra ising</w>
n am</w>
er stre
Be glei
vil lages</w>
country side</w>
tran si
sub jects</w>
stra fe</w>
l ou
Konsequ enzen</w>
k ette</w>
Gu ests</w>
G ames</w>
B O
ab sor
Lo unge</w>
Ima ge</w>
pan oram
a qu
belan gt</w>
Ma il</w>
Gol d
dr ing
CO M</w>
Ber n
Provin z</w>
tri al</w>
pa ying</w>
fer n
du ties</w>
P in
supp lier</w>
In fo
A C</w>
C up</w>
col ours</w>
G am
Dar um</w>
einge halten</w>
Gerä t</w>
C ir
Bo den
wa ve</w>
shor t
arti stic</w>
vor rangi
D auer</w>
Num mer</w>
Fa x</w>
berei chen</w>
arbei tungs
S ad
tr end</w>
represent ation</w>
philosoph y</w>
Ham as</w>
5 9</w>
for th
E W
wei len</w>
U M
е н
ge wissen</w>
ski ing</w>
muse ums</w>
bedau er
W o</w>
Land es
C S</w>
tri ps</w>
gebo ten</w>
am i</w>
S ig
L en
Bud get</w>
thous and</w>
sper ity</w>
fu er</w>
be antworten</w>
lau b</w>
beg eist
individu ell</w>
im por
Posi tionen</w>
Bo ot
führ ungs
coun ts</w>
Proz esse</w>
pursu e</w>
gr ös
To ols</w>
t less</w>
kilom et
con sent</w>
T rop
Besch lüsse</w>
ne vertheless</w>
nach drück
c ei
Holi day</w>
zi one</w>
weit gehend</w>
Betra g</w>
stre bt</w>
man che</w>
d ella</w>
compar ison</w>
bereit gestellt</w>
Lissab on-
promis ed</w>
Kroati en</w>
Comm un
Z eu
Maastri cht</w>
re servations</w>
inter nen</w>
Inter essen
recei ving</w>
komm un
Wäh len</w>
beob achten</w>
Sp eich
10 0
si ty</w>
e be</w>
au to
lü ssel
bedeut ende</w>
S et</w>
Glaub würdigkeit</w>
Elek tro
in put</w>
in mitten</w>
R ati
inv ited</w>
ab e</w>
R ü
Ju gen
Egyp t</w>
Con sul
ähn liche</w>
she et</w>
T el
ep rä
I ON</w>
H aving</w>
wiederhol t</w>
s entation</w>
mus sten</w>
R ö
4 0
difficul ty</w>
H im
tob acco</w>
T reib
zu ständig</w>
zi el
ro ot</w>
T ool</w>
Ch eck-
Über legungen</w>
vor ge
vor anzu
bat ter
G ö
effizi ent</w>
P fer
port folio</w>
be kommt</w>
ag ra
a ward</w>
or ama</w>
ber gen</w>
O l
- based</w>
ma chten</w>
gr o</w>
Jah re
Park platz</w>
Völ ker
Pas sa
Kop f</w>
mittl eren</w>
ausge zeichnet</w>
St rom
Schwi mm
Kul turen</w>
sozi aler</w>
k rank
gebil det</w>
ge führten</w>
entsp annen</w>
Ver zö
st y</w>
Tro tzdem</w>
Islam ic</w>
G anz</w>
an belangt</w>
Konta kte</w>
z onen</w>
po ols</w>
Ch an
9 2</w>
erst mals</w>
ed ings</w>
Z ur
über prüft</w>
Leg al</w>
Zivil gesellschaft</w>
Qu ality</w>
sugge sted</w>
al ties</w>
Redu zierung</w>
Kon stru
Gegen stand</w>
Bulg arien</w>
b ele
E I
no tic
li erung</w>
ein ma
S A</w>
mi d-
Su iten</w>
I W
langfris tige</w>
G ast</w>
5 8</w>
proble me</w>
pro sperity</w>
lauf enden</w>
gesetz ten</w>
Situ ated</w>
S t</w>
Cast le</w>
tä r</w>
t ons</w>
p ure</w>
ein bezogen</w>
U T
Kor ruption</w>
x el</w>
st ages</w>
ni veau</w>
de fe
belie bi
B ut
bab we</w>
ursprün glich</w>
tei lungen</w>
kti ert</w>
ter ung</w>
Viz eprä
Agri culture</w>
4- 0
tra ge
pl atte</w>
lang sam</w>
Pla ya</w>
um p</w>
rel ative</w>
get table</w>
dis abled</w>
Men ü</w>
produc tivity</w>
por ation</w>
isl am
Mr d.</w>
Mon day</w>
zi pi
Geh minuten</w>
peri ods</w>
fer tig</w>
argum ents</w>
optim ale</w>
fän gt</w>
e at</w>
Schlü ssel</w>
G lück</w>
hervor ge
Prof essor</w>
K O
Bro wser</w>
An lass</w>
well- known</w>
wel coming</w>
deli cious</w>
Mr .</w>
Geschm ack</w>
be ur
Tran sa
Mon t
wel com
redu ziert</w>
necess arily</w>
dep end</w>
attemp ts</w>
Premi er
Kör per
F ast</w>
steu ern</w>
en falls</w>
mag ne
gesund heit</w>
Ge fahren</w>
C F
pati ent</w>
p o</w>
kom fort
Konkur ren
confir mation</w>
Bud gets</w>
Ger echti
B ased</w>
spar tner</w>
arbei ts
Americ ans</w>
wirtschaf tlich</w>
ter ri
demo kraten</w>
we ak</w>
ou b
ar gu
o v</w>
m ass
en cing</w>
Vor haben</w>
Energi en</w>
symbo l</w>
so unds</w>
ge pf
clean ing</w>
an gesehen</w>
refer endum</w>
k es
rec y
Slo ven
A M</w>
a .
Kolleg in</w>
Deb i
im port</w>
Stoff e</w>
s man</w>
p ä
le aves</w>
hi ll</w>
religi on</w>
re publi
dau ert</w>
E T</w>
Da für</w>
schätz ung</w>
geh ol
Gewähr leistung</w>
Stras bourg</w>
Kon zer
z auber
wirtschaf ten</w>
ver teilt</w>
Eigent um</w>
Off en
sho t</w>
gesch afft</w>
aus gerichtet</w>
Lebens mittel</w>
wen ig
un ited</w>
m unicip
Finanzi erungs
A R</w>
G ut
stei gt</w>
st ern</w>
poli tically</w>
hom es</w>
auf treten</w>
D O
soverei gn
far ming</w>
O ver
st sein</w>
in y</w>
enab ling</w>
over view</w>
letz tendlich</w>
ge plan
Ti p</w>
E A</w>
dre am</w>
den falls</w>
bet reiben</w>
Auf sichts
10 .</w>
re e</w>
im ports</w>
en cia</w>
bet ten</w>
ban k
K ey
App le</w>
weis ungen</w>
tä glichen</w>
proje kte</w>
P il
w ahl
stim ul
per mitted</w>
con sci
beein trächti
vers ary</w>
lob by</w>
entre pren
satisfac tory</w>
M illenni
vor ange
behaup ten</w>
ord nungen</w>
i gt</w>
Pl ace</w>
entsch lossen</w>
ausge geben</w>
in os</w>
grün den</w>
al located</w>
estim ated</w>
Schi ffe</w>
Ver lust</w>
constitu te</w>
Ger ade</w>
ti ere</w>
b ach</w>
zukünf tigen</w>
verkehr s</w>
socie ties</w>
H under
-Sterne- Hotel</w>
verfüg baren</w>
unfor gettable</w>
er setzen</w>
ed back</w>
Wirtschafts wachstum</w>
A th
4 ,
r are</w>
cent rali
sup posed</w>
succ eed</w>
s inc
g gle</w>
P eri
Ma ster</w>
Krieg s
J ack
Feder ation</w>
ra tion
k illed</w>
signific ance</w>
or i</w>
ati k</w>
8 8</w>
public ation</w>
Program m
Fac ilities</w>
cr yp
hier bei</w>
co operate</w>
welcom ed</w>
Throu gh</w>
konta ktieren</w>
P on
künf tige</w>
instruc tions</w>
X P</w>
z enten</w>
ge dacht</w>
continu ous</w>
Gaz a</w>
u pper</w>
sa h</w>
Fahr zeuge</w>
über greif
soli di
recogn ized</w>
Er füllung</w>
wi reless</w>
Ter rit
F rü
gel ingt</w>
Ent lastung</w>
zentr en</w>
i j
ali stischen</w>
Prakti ken</w>
ein zusetzen</w>
Person al
L ad
wie gend</w>
Stern e</w>
ver sichern</w>
obli ged</w>
militär ischen</w>
be endet</w>
Wal d
ver län
co ol
Belgi en</w>
unterschei den</w>
enthusi as
Gef än
n ut
speich ern</w>
ch ie
Ger icht</w>
größer es</w>
ge teilt</w>
A sian</w>
four th</w>
entsp ann
Gen ießen</w>
Über gangs
kt rum</w>
func tionality</w>
Thail and</w>
vertei digen</w>
be vor
L es</w>
EC B</w>
i Phone</w>
spar en</w>
ange passt</w>
Er gän
konfron tiert</w>
zz i</w>
tre e</w>
speciali st</w>
ot ing</w>
Al ger
to ward</w>
program ming</w>
militär ische</w>
Wh o</w>
stand s
co s</w>
Schi ff</w>
9 .</w>
00 1</w>
h -
destro yed</w>
au l
konzentri ert</w>
exc ur
erkenn t</w>
Proz esses</w>
mis sing</w>
beschle uni
all zu</w>
R ol
off ene</w>
Freit ag</w>
Bu il
leg te</w>
klär ung</w>
ref ers</w>
har dly</w>
dis cre
cell s</w>
contri buted</w>
acc eler
Bevölk erungs
12 .</w>
lus ses</w>
kl ein</w>
Berlin er</w>
Aus flüge</w>
An stieg</w>
ac tors</w>
oper ative</w>
gere ch
Po int</w>
Is lands</w>
Gerechti gkeit</w>
remain ed</w>
akti viert</w>
Fin land</w>
Donn er
р а
reit er
Verletz ung</w>
Be stä
A vi
pri me</w>
ba res</w>
UN ES
Res ul
Gemein de</w>
son g</w>
li ved</w>
interess ant</w>
bege g
wel comes</w>
sec tions</w>
organ ic</w>
du mp
conc er
staat lichkeit</w>
fähi gen</w>
sp a
per si
p en</w>
o ch</w>
ak s</w>
Vor aussch
unabhängi gen</w>
ter -
pro xim
Frühstücks buffet</w>
Perspe ktive</w>
Gui de</w>
mod ules</w>
gr enze</w>
charac ters</w>
negoti ating</w>
environ ment
6 7</w>
Pla y
M ut</w>
gele genen</w>
fü ll
design s</w>
ar med</w>
D rei
Austra lia</w>
5 7</w>
be stellen</w>
H O
harmon isation</w>
g licher</w>
Sa chen</w>
F eld</w>
Am t</w>
Übernach tung</w>
wei ch
und oub
l unch</w>
ful fil</w>
K la
Ver arbeitung</w>
13 .</w>
ri eren</w>
in er
hospit ality</w>
der e</w>
ach ing</w>
R unde</w>
bra chte</w>
Stand ort</w>
wa ffen</w>
super vision</w>
lat t</w>
tr ends</w>
suff ered</w>
Situ ationen</w>
Lan gu
h l</w>
s oph
prev enting</w>
pre chen</w>
gen -
Nachbar n</w>
Fam ily</w>
re vision</w>
h i</w>
N ext</w>
LA F</w>
Bet ten</w>
Schwei zer</w>
Flücht linge</w>
Ar t
vier tel</w>
no tes</w>
gehens weise</w>
eu ros</w>
Zei tung</w>
unter zeichnet</w>
institution elle</w>
amen ities</w>
herunter laden</w>
fe es</w>
cl asses</w>
Kris en
G ir
expla ined</w>
reich er</w>
mit teilen</w>
Organ e</w>
unter streichen</w>
gemein schaftlichen</w>
et abli
ari ties</w>
des wegen</w>
d ges</w>
beg riffen</w>
Weiter en</w>
t act</w>
spe k
kri eg
son gs</w>
illeg alen</w>
bisher igen</w>
sicht bar</w>
Anti -
strateg ische</w>
fan den</w>
ern t</w>
tern al</w>
forth coming</w>
P läne</w>
Di kt
tra vel
n one</w>
Mär kten</w>
Educ ation</w>
unzu reich
indic ate</w>
blo cks</w>
NG Os</w>
kön nt</w>
vorzu legen</w>
ther mal</w>
musi cal</w>
mitglie der</w>
leg ally</w>
ar ity</w>
Tä tigkeiten</w>
barri ers</w>
Will kommen</w>
Lat ein
betreff end</w>
voll ständigen</w>
k und
fre edoms</w>
fa x</w>
V ul
th ou
lie ber</w>
mi en</w>
Rom an
C P
wirk same</w>
spre che</w>
besch reibung</w>
abili tät</w>
gesch m
be völk
ar ise</w>
S ind</w>
sp here</w>
ga ther
ab stimmen</w>
an schließend</w>
b ann
Sh ould</w>
belie f</w>
S mar
Finanz krise</w>
ran ging</w>
introduc ing</w>
every body</w>
emp fangen</w>
ass ur
zukünf tige</w>
pro t
par ameters</w>
Ver einfach
S ob
Direc tor</w>
restri cted</w>
ph arm
Sch on</w>
sa ved</w>
hochwer tige</w>
Gr ünen</w>
comp uters</w>
p p</w>
eh ol
conven tional</w>
an gebracht</w>
Feh ler
Donner stag</w>
ga p</w>
dienst leistungen</w>
Wider spruch</w>
unter liegen</w>
simul tane
origin ally</w>
natür liche</w>
char ak
air e</w>
HT ML</w>
ur teilung</w>
sustain ability</w>
sto cks</w>
gro sse</w>
verwal tung</w>
ver dienen</w>
lab elling</w>
er gibt</w>
en ever</w>
dri ven</w>
well ness</w>
vorgeschla gene</w>
mo vie</w>
Regierung schefs</w>
Pro ject</w>
P fle
Er wer
umfangreich e</w>
ong side</w>
ange kün
Verän derung</w>
Audi tors</w>
Abend essen</w>
har t</w>
geprä gt</w>
foot ball</w>
s ses</w>
stat e-
mo vements</w>
in ev
Re dner</w>
enhan ced</w>
Ven ice</w>
A F
enter prise</w>
I ran
ä le</w>
wi ld</w>
pre ad</w>
ans wer
ä fen</w>
res ource</w>
fir mly</w>
Sch loss</w>
An kunft</w>
vorgeseh enen</w>
sever e</w>
re mark
ap ers</w>
öff nung</w>
comb ine</w>
Satur day</w>
Ander e</w>
w ski</w>
rä u
refle cted</w>
prakti sche</w>
j unk
hy dro
trans mission</w>
langfris tig</w>
sho wed</w>
er re
reali se</w>
hil fre
Gesch äft</w>
Ent sch
At tra
sau ber</w>
fair ly</w>
alisi erten</w>
unabhängi ge</w>
Zu ständigkeit</w>
Institu t</w>
f ährt</w>
effizi ente</w>
Zu g</w>
V ER
Aus maß</w>
anzu zeigen</w>
Ä u
err ors</w>
Sing le</w>
sch em
p her
bew u
S timmen</w>
en on</w>
Intern ationale</w>
hin gegen</w>
gen s
St ability</w>
re marks</w>
be hoben</w>
Mall orca</w>
G M
tim et
p it
k üh
fu hr</w>
bein gs</w>
an hand</w>
h te</w>
angeb ot
sel ten</w>
Stre it
M ah
Ab lehnung</w>
en ge</w>
proce edings</w>
an schließen</w>
Kan ada</w>
su it</w>
r as</w>
W eg
L ic
lo t
ehr ten</w>
gemein schaft</w>
Cook ies</w>
u tions</w>
sched ul
refle cts</w>
gn is
Viet nam</w>
M aga
ung s</w>
effizi enz</w>
Do es</w>
Piaz za</w>
AID S</w>
14 .</w>
är ten</w>
ima gine</w>
fas cin
wach senden</w>
res que</w>
consider ably</w>
R ab
G or
vor bei</w>
r ung</w>
ger aten</w>
g ischen</w>
Ser bia</w>
adap ted</w>
ab sur
spie gelt</w>
por tu
ge beten</w>
bud gets</w>
bo ards</w>
Soci alist</w>
the tic</w>
li schen</w>
S L
App lik
mon o
direc tor</w>
Ri o</w>
Aca de
hear ing</w>
ssi g</w>
hol ds</w>
er wer
can cer</w>
amaz ing</w>
Qu ellen</w>
Emp lo
Cor porate</w>
lös ungen</w>
ed -
colle cted</w>
am t</w>
V ista</w>
Ar mee</w>
im men
obstac les</w>
H O</w>
ätz en</w>
Vor lage</w>
sho fs</w>
where as</w>
Region al</w>
safe guard</w>
ag ent
nor malerweise</w>
e dition</w>
Bür o</w>
р о
universi ties</w>
á n</w>
par liament</w>
P las
Gesch le
gewähr en</w>
ali tion</w>
Lei tung</w>
CH F</w>
wahr en</w>
so genannten</w>
o f
endor se</w>
Respe kt</w>
Zi vi
Rei sen</w>
R oll
tra cks</w>
as en</w>
B I
coordin ated</w>
ar bit
Kommission sprä
Cap tain</w>
samm eln</w>
adap t</w>
Stockhol m</w>
Al bum</w>
k örper
fik ation</w>
Re z
Ra di
Gesch en
soph istic
Ber g</w>
Be für
A ri
pres sed</w>
op hi
fa ith</w>
hervorra genden</w>
freund lichen</w>
fem ale</w>
akti v
ter ing</w>
te ch</w>
sup er</w>
ess ed</w>
Nach t
1 1
regar dless</w>
accep tance</w>
roman tic</w>
Christ mas</w>
at o
S ul
s ach
dar gestellt</w>
dank bar</w>
Eben en</w>
a sion</w>
re st
Wei h
Ver halten
Gen eva</w>
Frei zügigkeit</w>
E as
sorg ungs
schn ellen</w>
gra d</w>
a .m.</w>
Moder ni
Ger ichts
Bu dd
ta il
norm alen</w>
m its</w>
län dischen</w>
investi gation</w>
grei ft</w>
gener ations</w>
gen o
Mut ter
Fre und
Bör se</w>
spar tei</w>
si ghts</w>
ch air</w>
b rech
Aut onom
6 3</w>
gre en
dr y</w>
dec ade</w>
consul ting</w>
Staats an
S ohn</w>
s w
g oo
ek tive</w>
contri but
c lin
wor thy</w>
gewünsch ten</w>
Ro ad</w>
Führ er</w>
enthal tenen</w>
Hei zung</w>
let ters</w>
ho hem</w>
bir th</w>
Pre sse
Kön ig</w>
flu g</w>
dar k</w>
Abhängi gkeit</w>
u x</w>
M eines</w>
H us
ves sels</w>
vereinbar t</w>
si erungs
arbei tete</w>
Rück kehr</w>
vor liegende</w>
feder al</w>
deli ber
öffent lich</w>
besonder er</w>
Indi an</w>
prä sent
explo itation</w>
Cat al
8 2</w>
ver boten</w>
undoub tedly</w>
jur is
bür ger</w>
bs p</w>
Deut sch</w>
si scher</w>
personen bezo
no ver</w>
Aktionsp lan</w>
z eln</w>
in t-
az z</w>
Di plom
Absch affung</w>
8 0
hy th
d ä
ti ll</w>
AK P-
ul s
re action</w>
manag ing</w>
Ur heber
metho den</w>
is men</w>
Wochen ende</w>
flä chen</w>
et a</w>
equi valent</w>
am ed</w>
F an
B ad
pret ty</w>
al tet</w>
S W
s ought</w>
hei ßen</w>
Erinn erung</w>
sp ei
kontrol lieren</w>
disa sters</w>
Vol kes</w>
tie f</w>
produ zieren</w>
politi sches</w>
Reser vierung</w>
e ase</w>
comp act</w>
Sp ie
ill ar</w>
f eu
de v
Ent spannung</w>
di alog</w>
C olo
trav elling</w>
ernsthaf t</w>
Haushaltsp lan</w>
incre di
Liz enz</w>
Kon g</w>
or ds</w>
er freut</w>
H ong</w>
or dered</w>
griech ischen</w>
anti cip
Te ams</w>
Som e
G ang</w>
D än
se es</w>
kon figu
ge plant</w>
Vic e-
internation ally</w>
w ör
distri but
ben de</w>
Er st</w>
prin ted</w>
mi et
mbo l</w>
gui ded</w>
chec ks</w>
Stuttgar t</w>
Passa gi
ut zutage</w>
stri chen</w>
ri si
Phi losoph
Masch ine</w>
über ein
zu zu
T rin
jet zigen</w>
Gesch windigkeit</w>
Cul ture</w>
Befu gnisse</w>
er nen</w>
Konfli kte</w>
Betei ligten</w>
met ro</w>
Custom er</w>
jo ining</w>
ex zell
T E</w>
Samm lung</w>
fi x</w>
at z</w>
E qu
D ritten</w>
Zah lungen</w>
Or te</w>
Jahrzeh nten</w>
bur gh</w>
E P</w>
supp lied</w>
dec line</w>
si n</w>
rech nen</w>
re stored</w>
g no
zo g</w>
under ground</w>
j i</w>
U -
Mark en</w>
Kir k</w>
kre is</w>
exter nen</w>
Georgi a</w>
Fahr t</w>
ge fragt</w>
bestimm ungen</w>
unent gel
i o</w>
coura ge</w>
W ed
ro ots</w>
künst ler
hervorge hoben</w>
be merk
ti m</w>
se x</w>
gesch ätz
Qu elle</w>
Bei de</w>
scri pt</w>
proto col</w>
komple tte</w>
gesch o
ag a</w>
um zu
aus ger
Ch eck</w>
elek tr
bro w
M A</w>
Binnenmark tes</w>
del eg
b utes</w>
Plan eten</w>
tain er</w>
Sy mp
über aus</w>
m outh</w>
ch ester</w>
Ti bet</w>
Aut or
pro min
Gleich stellung</w>
A li
vi erten</w>
kor rigi
einhei tliche</w>
To p</w>
Administ ration</w>
gre ssi
f illing</w>
S eri
Bl ut
Berich ten</w>
ungs verfahren</w>
th u
exclu sion</w>
cri p
Z e
us -
so und
auf gebaut</w>
am in</w>
O t
any where</w>
erst klassi
belie ves</w>
Se ver
reli ability</w>
ling u
ic y
äum t</w>
tac kl
n bsp</w>
mittler weile</w>
exclu ded</w>
6 2</w>
lear ned</w>
er fordern</w>
cul tures</w>
au stausch</w>
M äd
m ere</w>
Tour ism</w>
zusammen zu
schwer en</w>
pre dic
U p</w>
her stellung</w>
be zahlt</w>
V an
satis fy</w>
Mex i
Eu ch</w>
wal d</w>
ti er</w>
Proz ess
Debi an-
T or</w>
Hand els</w>
pen alty</w>
ent gegen</w>
M ili
Kredit karte</w>
ste ten</w>
leich ter</w>
Fri endly</w>
B üh
feh l</w>
For mu
Blu e</w>
unterschie dlich</w>
geleg te</w>
erwäh nen</w>
em m
ei gh
ß ten</w>
tre ss</w>
Groß teil</w>
ger icht
concent rate</w>
Schön heit</w>
Me eting</w>
Dre h
beschrän ken</w>
Ver mö
shi ft</w>
lei dung</w>
klassi schen</w>
bo ar
Fot o
vi es</w>
restruc turing</w>
ökonom ischen</w>
zugr unde</w>
Voraussch au</w>
P ur
Mut ter</w>
sub sequent</w>
ent deckt</w>
di versi
Wi kit
B in
Ge werk
Dar stellung</w>
ten e
flo ors</w>
Ther ap
über ein</w>
gar ten</w>
viol ations</w>
transfer red</w>
Me d
Ma xim
r h
Alli anz</w>
un ruhi
mis sions</w>
korre kt</w>
ex o
be danken</w>
process ed</w>
kom fortable</w>
beauftrag ten</w>
Op position</w>
unter sucht</w>
prec ed
letz ter</w>
in ated</w>
hal ts
geh ei
cl ause</w>
analy se</w>
G T
н о
humanit äre</w>
existi ert</w>
Ur sachen</w>
nachdrück lich</w>
AC P</w>
ste am</w>
Wikit ra
T al</w>
7 7</w>
zurück zuführen</w>
perfe kte</w>
b o</w>
Loc ation</w>
um setzen</w>
Lu f
techn ologie</w>
sovereign ty</w>
gestal tung</w>
Alex ander</w>
o ft
Imp le
hier für</w>
form ats</w>
dign ity</w>
Lit er
Di am
Taus ende</w>
Haupt bahnhof</w>
stamm t</w>
ob o
non- smoking</w>
an z
Inform ation
Wi k
Ver teilung</w>
T ages</w>
O s
Not es</w>
every where</w>
hei t
fac tory</w>
6 9</w>
ass embly</w>
einge gangen</w>
ir re
N az
L A</w>
t ings</w>
sen ken</w>
re store</w>
h ast</w>
M ir</w>
Waff en
Fran zö
Cas a</w>
к о
ber ichten</w>
Fak tor</w>
8 9</w>
umfas send</w>
9 00</w>
per cent
magaz ine</w>
ge fügt</w>
fest zulegen</w>
W T
demo cra
Ver schie
Krimin alität</w>
ste te</w>
bud sman</w>
Re d
Kü sten
Invest oren</w>
de fiz
Gemein same</w>
Agent uren</w>
p lic
kur s</w>
ie den</w>
Eing ang</w>
Commission ers</w>
Bran che</w>
7 3</w>
re served</w>
Liz enz
Be wus
sen s
Spiel en</w>
j ac
einzu führen</w>
over looking</w>
gro ssen</w>
ent täu
al li
I l</w>
produc es</w>
plas tic</w>
Acade my</w>
ver n</w>
me al</w>
Bal kan</w>
targe ted</w>
enor me</w>
Re chten</w>
C ot
ass ess</w>
Muse en</w>
ges tie
de ad</w>
appro ve</w>
Pass wort</w>
Nahrungs mittel
c ell</w>
bed ded</w>
K öl
pan el</w>
hoff entlich</w>
Vertra ges</w>
So l</w>
N ero</w>
Gener ationen</w>
fu els</w>
S lowak
S ier
H at</w>
list ings</w>
Z ut
Wor t
t um</w>
lo h
Su dan</w>
Hoch schul
Arbeitsp latz</w>
sha dow</w>
pictu resque</w>
n ine</w>
lä dt</w>
acci dent</w>
stu dent</w>
st an</w>
strength ened</w>
mis s</w>
ger ing</w>
geb äu
deep ly</w>
under taken</w>
treat ments</w>
ten -
Küh l
n es</w>
ker nel</w>
qu iry</w>
Wür de</w>
F esti
B ag
well en
Sto ck</w>
P hän
EZ B</w>
y s
won ach</w>
St aff</w>
stra sse</w>
m eter</w>
wes enheit</w>
oper ates</w>
frü hen</w>
Par ameter</w>
Berei tschaft</w>
Aus einander
str o</w>
co ol</w>
besor gt</w>
b right</w>
Hau t</w>
Ab ent
erweiter n</w>
Z ins
Oper a</w>
t les</w>
Mar k</w>
wor st</w>
ph ones</w>
Som it</w>
A 5-0
á s</w>
sto ß</w>
geeig nete</w>
teil s</w>
se u
beglei tet</w>
offizi elle</w>
fest gelegten</w>
y ear
re stor
ing er
Pap ier</w>
H- 0
D ör
n ers</w>
en erg
de i</w>
di ert</w>
B e</w>
fin ed</w>
Program mi
Fern sehen</w>
Inn enstadt</w>
Hab en</w>
cap it
W ould</w>
Rechts staatlichkeit</w>
Lei p
stei gern</w>
norm ally</w>
intel ligent</w>
fisher men</w>
ap s</w>
P ack</w>
Ev ents</w>
S CH
9 3</w>
re construction</w>
r ut
exec utive</w>
digit alen</w>
W all
vorsch läge</w>
sich tsp
s low
is lat
IM F</w>
verhand lungen</w>
sus pen
panoram ic</w>
ange wendet</w>
sto res</w>
land s
S E</w>
vor nehmen</w>
ma x</w>
Anwen der</w>
198 0</w>
gnü gen</w>
fähi ge</w>
un fair</w>
statt findet</w>
t ü
inte gra
würdi g</w>
enter ing</w>
d ness</w>
ar re
Park plätze</w>
us age</w>
hi king</w>
h ec
fre ely</w>
dis krimin
part ments</w>
Hand lungs
Gem ü
rä um
pres sing</w>
Spei sen</w>
Amon g</w>
lich keits
ge äußert</w>
fest en</w>
aus gaben</w>
Yu gosla
Stär ke</w>
pro vince</w>
Registri erung</w>
Spezi al
D s</w>
Öff nung</w>
anni versary</w>
st ran
rec re
ir ischen</w>
F öder
Bibliothe k</w>
6 1</w>
ul tra
lin ken</w>
F OR
As sozi
portu gie
pl ates</w>
ein gestellt</w>
C lin
Be arbeitung</w>
inf rin
illu str
bath rooms</w>
Reser ve</w>
verwen de</w>
fas z
Prä sen
Cha ir
tra t</w>
present ing</w>
i Po
Jose ph</w>
su perior</w>
individu ally</w>
Volks gesundheit</w>
Ver lu
Kontin ent</w>
CO 2-
Ge fan
vor aus</w>
sol ar</w>
dr yer</w>
dafri ka</w>
T ests</w>
AR E</w>
qualit ativ</w>
pf ung</w>
Ver lauf</w>
Spit zen
Mi ß
Mes se
Indu stry</w>
w ash
n ail</w>
- up</w>
swi tch</w>
mutz ung</w>
Stre cke</w>
St unden
S C
Fr ist</w>
türk ischen</w>
thre ats</w>
prospec ts</w>
m ein
empf ohlen</w>
a res</w>
L ern
Amerikan er</w>
w as
prof its</w>
eng ines</w>
cas ino</w>
Den mark</w>
pro ch
haf tet</w>
brie fly</w>
Niederlan den</w>
re volution</w>
k einem</w>
Man u
Con tent</w>
ver weisen</w>
son sten</w>
manufac ture</w>
be enden</w>
Str and
D ritte</w>
im peri
colle ct</w>
bi an</w>
Bes ei
tax i</w>
high lights</w>
d ollar</w>
CA P</w>
30 .</w>
se kre
proz esse</w>
nütz lich</w>
le hr
gan z
a ders</w>
Währungs union</w>
Ferienwoh nung</w>
fund ed</w>
atta ched</w>
Kompet enz</w>
rep utation</w>
U L
Gol den</w>
ra id</w>
gro wn</w>
fav ou
Mot or</w>
Consu mer</w>
Über blick</w>
neighbour ing</w>
lab or</w>
C ou
li able</w>
D ass</w>
sel ber</w>
ad ds</w>
Minu te</w>
Her z</w>
ec ological</w>
campa ign
ackno wledge</w>
Well ness</w>
A ma
Wan del</w>
K ategorien</w>
it ar
e ur
bewäl tigen</w>
T el</w>
RO M</w>
Kap ital</w>
wa ge</w>
ad ding</w>
Er forder
bel ong</w>
Mehr wert
Gel der</w>
9 4</w>
teach ing</w>
pharm ac
lan ger</w>
herr lichen</w>
ge stärkt</w>
di stor
S ä
Ju gend</w>
5 ,
gel esen</w>
Con sequently</w>
pra gmati
ment ed</w>
all eng
Wirtschafts krise</w>
ul en</w>
Min im
sle ep</w>
pre siden
gesetz lichen</w>
genau e</w>
ehr t</w>
g am
ast er</w>
ant es</w>
s ä
über winden</w>
t ories</w>
gra ben</w>
eng aged</w>
Kamp agne</w>
6 0
zerstör t</w>
vari ed</w>
stun ning</w>
stru ggle</w>
sicher gestellt</w>
oper ated</w>
ge wer
at i</w>
Umweltsch utz</w>
beg ins</w>
Ö l</w>
syn chron
end ar</w>
Herb st</w>
gegenwär tige</w>
effici ently</w>
condi tioned</w>
Residen ce</w>
L icht
wi des
v re</w>
re ti
Leg isl
BS E</w>
her auszu
Ander erseits</w>
Gra fi
Autob ahn</w>
cam p</w>
Spa zier
stu ff</w>
lich te</w>
Rich ard</w>
á n
thre e-
lo ser</w>
Kon zent
ri ft</w>
me ets</w>
ergän zt</w>
Zü rich</w>
CD s</w>
zi ger</w>
indi re
ali a</w>
Masch inen
Bestimm ung</w>
H els
unmittel barer</w>
Zah lung</w>
Län ge</w>
B ord</w>
r ally</w>
po the
he ading</w>
e o</w>
Kor rek
C el
gen es</w>
twi ce</w>
pro pri
fro h</w>
Vereinfach ung</w>
p ast
Proto col</w>
P ho
Auf trags
vi c</w>
propor tion</w>
Sk y
integri erten</w>
Instru ments</w>
Flor enz</w>
E s
au dio
C ab
hal tungs
be hält</w>
mitt lung</w>
mi le</w>
kenn t</w>
eigen er</w>
d lichkeit</w>
ar do</w>
Steu erung</w>
Potenzi al</w>
stärk ere</w>
ri ding</w>
T ok
Deb atten</w>
B our
sur prise</w>
rec ording</w>
euro zone</w>
combin es</w>
ini eren</w>
con fron
S äu
N ok
an i
P sy
7 8</w>
in j
Dokum enten</w>
swi t
graphi cs</w>
U sing</w>
Hels ink
7 6</w>
suffici ently</w>
mi stake</w>
gleich ermaßen</w>
fahr t
en ergie</w>
O K</w>
Ho he</w>
B ed</w>
zeichn ungen</w>
fa chen</w>
Tex t
Mon tag</w>
K ern</w>
kontrol liert</w>
Medi kam
Belgi an</w>
Z ahl
M .</w>
st on</w>
p illar</w>
Aut os</w>
jud g
ha z
Kaff ee</w>
Fre und</w>
D C</w>
zu kommen</w>
ver wei
Resol ution</w>
Mi et
p ace</w>
versch är
rechtzei tig</w>
Sch wan
ru pt</w>
Wes entlichen</w>
territ orial</w>
Tele kommunik
D R
langfris tigen</w>
Er haltung</w>
Berichterstat ters</w>
T ot
urg ently</w>
mit zu
kilomet res</w>
he ads</w>
19 th</w>
em pl
Soci ety</w>
So und</w>
Besei tigung</w>
Zu ständi
se ats</w>
phenom enon</w>
angemessen en</w>
war ning</w>
sophistic ated</w>
pus h</w>
ro lle</w>
co des</w>
Ha ve</w>
E E
pr ised</w>
occur red</w>
up gra
n -
h o</w>
Techn ologi
scienti sts</w>
c it
anzu bieten</w>
Pre sse</w>
sp ite</w>
rel ates</w>
ld n</w>
c -
Zu verlässi
unter bro
heal th
L eh
c lar
EU- Mitgliedstaaten</w>
verk nü
sh uttle</w>
ri te</w>
P aci
y ard</w>
mei ster</w>
Imp ul
tre ff
diplom atic</w>
Su ites</w>
neg ativen</w>
medic ine</w>
ar ising</w>
lo gical</w>
candi dates</w>
Pan oram
z te</w>
sh el
2 nd</w>
n ative</w>
ha ir
fo x</w>
conveni ence</w>
Sa ison</w>
R enn
P A</w>
M S
pos s
bedeut enden</w>
T ür</w>
Poli zei
op ol
de lic
ch alleng
ak ia</w>
Sci ence</w>
Kandi daten</w>
In ten
E mail</w>
kämp ft</w>
kan ische</w>
gi a</w>
derzei tige</w>
Tra in
ung laub
typ ischen</w>
inspi red</w>
ge geben
gar age</w>
erzeu gen</w>
bin den</w>
Ober fläche</w>
Det ail</w>
Bl ack
zi a</w>
unentgel tlich</w>
fe et</w>
Schul den</w>
Con c
speciali sts</w>
par t-
eff ektive</w>
Parl amente</w>
Mechan ismen</w>
li s</w>
enti ves</w>
Z erst
Proje kts</w>
Col lege</w>
stam men</w>
er hol
cul p
acqui red</w>
Straß burg</w>
po t
dam ages</w>
caus ing</w>
Ter r
Re present
Ge winn
vir tually</w>
k lear
is co</w>
exec ution</w>
me als</w>
il ater
UN O</w>
Jer us
An y
sor ge</w>
sec onds</w>
besu cht</w>
an zeigen</w>
Benutz ung</w>
zw ingen</w>
recor ds</w>
lei sch
G ul
appropri ations</w>
Om budsman</w>
í n</w>
up grade</w>
ous ness</w>
len ken</w>
flexi b
conc ert</w>
Pen sion</w>
Luxem burg</w>
em bar
b lau
angen ehmen</w>
Fot ogra
D au
will ing
uni form</w>
sch mer
adi se</w>
A rea</w>
z a
recogn ize</w>
ol dest</w>
Chil dren</w>
vi era</w>
inten ds</w>
construc ted</w>
Ver sorgung</w>
v i</w>
sp it
rech tlich</w>
are st</w>
Mon tene
D ingen</w>
Berei ts</w>
tax pa
pro jec
hon our</w>
gül tig</w>
betri eb</w>
geographi cal</w>
cho ices</w>
Un der
v is</w>
integr ate</w>
highligh ted</w>
Person en
Apparte ments</w>
boo st</w>
Gali le
Expl orer</w>
Ber ge</w>
ru m
Profession al</w>
Last ly</w>
lossen heit</w>
mar ine</w>
Verk ehr
Fur ther</w>
Bedürf nissen</w>
resul ted</w>
pic k</w>
oper ator</w>
er staun
K openhagen</w>
K lo
G E</w>
succ eeded</w>
serv ative</w>
eng age</w>
poli s</w>
n ic
got ten</w>
er ship</w>
b are
S li
7 4</w>
sub jec
in her
bewahr en</w>
T onnen</w>
Bu ff
unter suchen</w>
län dliche</w>
angeneh m</w>
au ßen</w>
produc er</w>
lic ens
essen tially</w>
cul tiv
aktu ell</w>
war tet</w>
re m
p as</w>
Religi on</w>
Pat ent
Dire kt
App lic
stric tly</w>
refer ring</w>
inf ec
hi dden</w>
fo ssi
entscheiden den</w>
consequ ence</w>
Aus wei
9 1</w>
gradu ally</w>
Innov ationen</w>
F luss</w>
stitu tion</w>
coher ent</w>
chec ked</w>
bi eren</w>
Veranstal tungs
Mar t
em ark</w>
bo ats</w>
verw öh
ess -
Dü ssel
ur laub</w>
kn app</w>
min ing</w>
hier zu</w>
er richtet</w>
Sob ald</w>
re aler</w>
kümm ern</w>
Le on
konkre t</w>
SA P</w>
B om
b i</w>
Sier ra</w>
S w
3 50</w>
th umb
maß geb
eri eren</w>
classi cal</w>
Vor be
kontrol li
gi k</w>
Rech t
man ual</w>
M ass
wides pread</w>
C L
5 00
tri g
min er
ge fasst</w>
er wor
vor gestellt</w>
radi k
Augen blick</w>
g lied</w>
St amm
Ni kon</w>
Ex cell
Ägyp ten</w>
reich hal
re porting</w>
Sonn tag</w>
Sad dam</w>
r l
bein halten</w>
nar row</w>
gh äfen</w>
affec ts</w>
Ber echn
4- star</w>
olog isch</w>
müs ste</w>
incorpor ated</w>
explan ation</w>
berech net</w>
auffor dern</w>
Pre ss
n eter</w>
L esen</w>
Hin weise</w>
vo s</w>
sitz en</w>
pass ing</w>
den jenigen</w>
ba y</w>
V IS</w>
t ant</w>
komp ati
finanzi eren</w>
Reguli erung</w>
K le
Hä user</w>
Be grün
tra gt</w>
- European</w>
über lassen</w>
her z
Tau ch
Sen kung</w>
tro ops</w>
avi ation</w>
K lu
Dialo gs</w>
Drit tel</w>
8 1</w>
spezi alisiert</w>
Staats -</w>
Nok ia</w>
Comm on</w>
prakti schen</w>
gr ünen</w>
fav ourable</w>
C ar</w>
for th</w>
con vi
col ors</w>
at om
re venue</w>
produ kten</w>
in hal
f loo
Flä che</w>
urop ä
uni or</w>
teach ers</w>
ro t
for ts
erklär te</w>
Sch reiben</w>
es en
Zusammen halt</w>
Besu chen</w>
tn issen</w>
kl asse</w>
ho p</w>
gro ss</w>
ec ts</w>
ra dio
Sm all</w>
Aus bildungs
s now</w>
gekenn zeichnet</w>
v ar</w>
ga stronom
War craft</w>
so il</w>
ausgewäh lt</w>
A si
wech seln</w>
in ely</w>
Hinder nisse</w>
st ories</w>
sha re
aff ir
vic tory</w>
s ement</w>
kol le
bi tions</w>
alco hol</w>
Pf ei
sur pris
proje kt</w>
be fasst</w>
an ne</w>
air ports</w>
ag ents</w>
Por to</w>
Nachhal tigkeit</w>
An meldung</w>
quali ties</w>
be er</w>
K äufer</w>
Vertre tern</w>
UNES CO</w>
geschi ckt</w>
Mechan ismus</w>
Hö chst
An sprüche</w>
k as
gir ls</w>
E din
gewi d
Mo dule</w>
A l</w>
c as</w>
Premier minister</w>
ä ften</w>
sh aush
reno viert</w>
re al
W ör
E th
Be achtung</w>
sti ck</w>
ex act</w>
Sicherheits politik</w>
l len</w>
ei ved</w>
consi ders</w>
Todes strafe</w>
proble m
ou ts</w>
co ck
Mo sco
Jugen dlichen</w>
Fis her
re pair</w>
Spi ri
ö tz
particip ating</w>
Pflan zen</w>
Mach t
he sit
ach ed</w>
R ele
Mand at</w>
wirk lichung</w>
ra k
Ergeb nissen</w>
ver fahrens</w>
ven ues</w>
lic a</w>
ch rist
Ur teil</w>
Se e
Paci fic</w>
L ine</w>
Er st
De partment</w>
ni ght
encoura ged</w>
ak te</w>
ad ays</w>
G R
Dan ish</w>
am ti
Co operation</w>
y ards</w>
sur prised</w>
o live</w>
li t
am p</w>
S har
f at</w>
Über tragung</w>
wech s
Sou verän
welt weite</w>
verletz ungen</w>
stechn ik</w>
peti tion</w>
m ouse</w>
gelan gt</w>
C ru
A y
program men</w>
at ur
Glau ben</w>
pro sec
hol e</w>
betri eb
Wider stand</w>
sp len
geh andelt</w>
ge führte</w>
sta yed</w>
cap abilities</w>
äl teren</w>
dies bezüglich</w>
willing ness</w>
wesent licher</w>
speciali zed</w>
ver sammlung</w>
müs sten</w>
ke ys</w>
str and</w>
atten d</w>
Sie d
y iel
tro ck
eventu ell</w>
do w
beeinflus sen</w>
T ruppen</w>
chine sische</w>
So w
uls ory</w>
ob served</w>
Po ker
contex tual</w>
zer ti
Wirk samkeit</w>
Invest ment</w>
pre sti
ei ll
cr yst
at orium</w>
N or</w>
Constitu tional</w>
sol di
hill s</w>
gen z</w>
druck s
achie vement</w>
Helsink i</w>
günsti ge</w>
fu gen</w>
b at</w>
Te am
Si em
worl d-
mär kten</w>
ha i</w>
Vice- President</w>
Entfer nung</w>
Air lines</w>
25 .</w>
un ab
pris on</w>
mo king</w>
Flug haf
Er satz
v able</w>
gefähr det</w>
clo ck</w>
bro ken</w>
Sy mbol</w>
ut most</w>
Mark en
Auth ority</w>
A part</w>
mäß ige</w>
Prä sident
Journ alisten</w>
t ut
bring ung</w>
Sch o
Chi le</w>
setz te</w>
prison ers</w>
europä isches</w>
Re par
Finn land</w>
Akti en
se eks</w>
fest zustellen</w>
boo ked</w>
bo und
gewäh lten</w>
fun ktion</w>
Urlau bs
Civi l</w>
Betre uung</w>
ver letzt</w>
m acro
Oli ven
regul ated</w>
geb lieben</w>
confer ences</w>
Mexi ko</w>
Erleb nis</w>
insi st</w>
Ver sammlung</w>
Par a
Lou is</w>
kno w-how</w>
iss ance</w>
th ri
por te</w>
Ma z
An nehm
woo den</w>
c at</w>
Gepä ck
Dat um</w>
An hör
repe at
op ens</w>
bil d
H z</w>
ster ben</w>
pre serve</w>
clari fy</w>
Hol z</w>
A .
nut ri
en ne</w>
Netz werk
ro of</w>
oft mals</w>
c rises</w>
acci dents</w>
Wei l</w>
I K
sh ore</w>
li ger</w>
la g
deck ung</w>
N er
woh n
sp häre</w>
develop ers</w>
com position</w>
ar men</w>
So und
Sim il
In flation</w>
schedul ed</w>
associ ations</w>
Ter ms</w>
Feh l
w ahr</w>
ende av
Li thu
ti ment</w>
Präsen z</w>
neu n</w>
lässi g</w>
je denfalls</w>
angewand t</w>
U R</w>
8 7</w>
territ ori
profession elle</w>
F our
spä t</w>
ab end</w>
Ven edi
F ig
moder ni
un kte</w>
es c
Vi si
B illi
är er</w>
moment an</w>
illeg ale</w>
C P</w>
Dokum entation</w>
Ara b
di ction</w>
Fin de</w>
Ein en</w>
theat re</w>
läufi g</w>
al ongside</w>
S eg
Off ic
Mäd chen</w>
ro ll</w>
gere gelt</w>
con vention</w>
all ing</w>
Räum e</w>
war t</w>
percent age</w>
fo rec
Jerus alem</w>
in door</w>
Z im
Kon ver
zieh ung</w>
to x
Str ände</w>
vari able</w>
mani p
hom o
b y-
and t</w>
An hän
umini um</w>
so eben</w>
per mission</w>
Por tal</w>
län gst</w>
Kohäsions politik</w>
Acc ess</w>
stä tigkeit</w>
in folge</w>
ergän zen</w>
Gemein schaften</w>
20 15</w>
quot as</w>
cre w</w>
Wohn zimmer</w>
Dres den</w>
evi dent</w>
edi ted</w>
c ting</w>
Tra vel</w>
Bu g
schwieri ge</w>
pe te</w>
la im
gi g</w>
ein stimm
de a
Tab ak
H D</w>
H D
ö ch
res s</w>
pu rely</w>
cat ch</w>
hop es</w>
behin der
ni k</w>
ment ation</w>
harm ful</w>
g ori
Di agno
regel ung</w>
quanti t
jo in
ge liefert</w>
conver gence</w>
air lines</w>
wirk liche</w>
ra in</w>
Ro ck</w>
B and
navi gation</w>
Moderni sierung</w>
I M</w>
res s
an sehen</w>
sch were</w>
ol i</w>
in tu
eb o
Rat schlag</w>
6 ,
&apos; m</w>
fest legen</w>
Q U
Co ck
palästinen sischen</w>
Ver wirklichung</w>
A ktions
ima gin
Vor stellungen</w>
Sam stag</w>
Frau en
Auf zug</w>
ung alo
reit en</w>
bran che</w>
an zunehmen</w>
T us
L ü
spiel er</w>
charak ter
Spit ze</w>
Mit entschei
se emed</w>
mit h</w>
ges etz</w>
g on</w>
Bas el</w>
disp ute</w>
Spei cher
K ie
it ly</w>
inc entives</w>
hin weg</w>
dis count</w>
Ver trag
regi erung</w>
Zu ge</w>
Ver sicherungs
Je doch</w>
char m</w>
bewer ten</w>
lo ading</w>
Elek tron
comp ulsory</w>
cal m</w>
Wil d
Ti cket</w>
Spezi alitäten</w>
Flor ence</w>
B 5-0
And alu
Energie effizienz</w>
EN T</w>
str ing</w>
cli cking</w>
alisi erte</w>
Wirtschafts politik</w>
Doppel zimmer</w>
ant i</w>
The at
lay out</w>
implic ations</w>
communic ate</w>
aufzu bauen</w>
radi cal</w>
humanit ären</w>
ar d-
an sprechen</w>
accoun ting</w>
Musli m</w>
j k</w>
S n
Betrie be</w>
20 th</w>
Übri gen</w>
relation ships</w>
pl ötz
mer kt</w>
chti gkeit</w>
Oper ation</w>
net z</w>
govern ing</w>
en cies</w>
Cub a</w>
h ur
se ktors</w>
min or</w>
k le
Ver zeichnis</w>
Ver fol
D ring
ta i
ac adem
ul timate</w>
gab en
cle ar
Kon junk
super b</w>
fir st-
d ying</w>
advent ure</w>
a o</w>
Schul den
ICH T</w>
Er richtung</w>
Bur ma</w>
timedi a</w>
hervorra gend</w>
exp and</w>
Weiter entwicklung</w>
Bü rokrati
organ ise</w>
geschlossen en</w>
dist ur
Mark et
sta in
ent liche</w>
Ri viera</w>
Chair man</w>
ün d
isti sch</w>
hin zu</w>
ell i</w>
ar ts</w>
H U</w>
Her stell
wäch st</w>
po o
expen se</w>
ar ray</w>
ö l</w>
uri ties</w>
trans fers</w>
pi lot</w>
enjo ys</w>
Produc t</w>
Bil dern</w>
12 .00</w>
th aus</w>
be aring</w>
Mich el</w>
Jes us</w>
ra chten</w>
form ing</w>
Tre aties</w>
Sti ftung</w>
verring ert</w>
afri kanischen</w>
Ty p</w>
P ier
tern s</w>
ari ans</w>
Unter künfte</w>
s me
meaning fully</w>
li fe
initi ally</w>
Gipf el
D E-Fraktion</w>
offen bar</w>
m ische</w>
ehemali ge</w>
e x</w>
be steh
Philosoph ie</w>
Mil ch
hal ts</w>
al i</w>
Leip zig</w>
wh er
tel ecomm
multilater al</w>
medi eval</w>
br y
belie ved</w>
Nig eria</w>
Mo sk
J on
Argum ente</w>
. net</w>
app elli
O EC
tru m</w>
S earch</w>
Außen -</w>
wi fe</w>
G ay</w>
lie b</w>
Softwa re-
en ger</w>
d unk
Wed n
struk turel
lo y
appro aches</w>
Tradi tionen</w>
zah lungen</w>
sta ying</w>
o ve</w>
cast ing</w>
au ern</w>
Volks wirtschaften</w>
Flu ghäfen</w>
Edin burgh</w>
B av
clo sure</w>
Z war</w>
ing redi
Bü cher</w>
ver steht</w>
man chen</w>
italien ische</w>
entfer nen</w>
dat eien</w>
Zyper n</w>
8 3</w>
techni que</w>
stan zen</w>
g ast
and in
Wer den</w>
Sch wellen
Jo int</w>
Auf lösung</w>
may be</w>
List ings</w>
Leb an
I P-
Con nec
schaf tlicher</w>
berühm te</w>
W erten</w>
Schü ler</w>
stat ing</w>
smo oth</w>
sch reck
Wohn ungen</w>
r y
le ute</w>
ic als</w>
W W
Th ree</w>
Ac count</w>
digit ale</w>
Con ver
vol les</w>
enfor cement</w>
Sch wä
n ische</w>
k ür
Engine ering</w>
win d
m ary</w>
bus y</w>
Wäh ler</w>
Umwelt fragen</w>
studi ed</w>
remark able</w>
po ker</w>
Grund lagen</w>
sprech end</w>
dig ungen</w>
ati vity</w>
Se ktors</w>
Arbeitn ehmern</w>
re tain</w>
ich tet</w>
descri be</w>
Syri a</w>
Je wish</w>
B ig</w>
Aus arbeitung</w>
Ar men
symp ath
shor tly</w>
CE O</w>
Akte ure</w>
p g</w>
el and</w>
der ly</w>
MP 3</w>
addres sing</w>
Obje kte</w>
Annehm lichkeiten</w>
A z
kontextu ellen</w>
enti eren</w>
bel eb
ep ing</w>
concent ration</w>
mehr fach</w>
entdeck st</w>
Wissenschaft ler</w>
Fundament al</w>
h ase</w>
Vermitt lungs
Fire fox</w>
Saf e</w>
Hum an
Sam sung</w>
per mit</w>
ent stand</w>
elimin ate</w>
el ev
ch i</w>
sto ck
lei hen</w>
b ought</w>
audi ence</w>
aff ord
Val encia</w>
Krieg es</w>
verwen deten</w>
qu et</w>
ig no
Re ad</w>
b lan
a ke</w>
Wiederauf bau</w>
Nor d</w>
therap eu
mm a</w>
Or ten</w>
Fahr er</w>
Dan ach</w>
An pass
at t</w>
repe ated</w>
ge ograph
Ten den
Perform ance</w>
por tra
poo rest</w>
kosten lose</w>
gä ste</w>
grammati cally</w>
Je an-
Camp ing
200 7-
schem es</w>
ingredi ents</w>
ein gebracht</w>
contex tually</w>
F abri
1. 5</w>
ap i
T ren
Fil me</w>
198 8</w>
hinzu fugen</w>
geni essen</w>
ab sta
Isra eli
Ar ena</w>
m on</w>
enor men</w>
as signed</w>
am ended</w>
qu i</w>
ri gor
kontextu ell</w>
Al lah</w>
ten der</w>
negoti ation</w>
grammati sch</w>
er teilt</w>
ch ts
b uses</w>
ex posed</w>
Sch atten
Ein er</w>
18 0</w>
x i</w>
mach in
b ited</w>
Verbraucher schutz</w>
T ieren</w>
Schi cks
S han
Ma ke</w>
Deutsch lands</w>
of- the-
medic ines</w>
k tu
con stitutes</w>
J ung
Gesetz es
verhäl tnis</w>
mo bil
di al</w>
ad os</w>
un ilater
e ur</w>
cir cu
O ut</w>
Him mel</w>
E tik
chair man</w>
vor zunehmen</w>
f lat
enti ert</w>
Schlussel wort</w>
Schlussel phrase</w>
F ull</w>
ver bindung</w>
ta gs
n utzt</w>
gesell schaftlichen</w>
aufge zahlt</w>
besei tigen</w>
Hard ware</w>
enn ess</w>
ak u
Internet zugang</w>
neh me</w>
feh len</w>
ch airs</w>
vor liegen</w>
Entwick ler</w>
Apparte ment</w>
en vis
Sie g</w>
wer ks</w>
shi p
qu ellen</w>
maxim al</w>
enn t</w>
an wenden</w>
Aus bau</w>
jun ction</w>
gen eh
ge kehrt</w>
aus üben</w>
s son</w>
fül lt</w>
Proble mati
gesch äft</w>
end sten</w>
campaign s</w>
pri ze</w>
mut lich</w>
exten ding</w>
certi fied</w>
G B
Dän emark</w>
än e</w>
dest o</w>
N ehmen</w>
Legi tim
ne o
as i</w>
stä tten</w>
ber ger</w>
auf bauen</w>
Stra h
Aus sage</w>
or ation</w>
n ings</w>
chap ter</w>
Pal ma</w>
Fre qu
vor gelegten</w>
intern e</w>
aus ser
arran ged</w>
transl ated</w>
as sen
Zw ischen</w>
Gi bt</w>
reagi ert</w>
p oll
he avi
manag ers</w>
legitim acy</w>
e vol
W it
Ser bien</w>
Den ken</w>
st ur
d or</w>
Vic t
J ord
plan en</w>
ein sei
L ernen</w>
G o</w>
Chi c
über wachen</w>
ut ung</w>
t é</w>
no -
be antwortet</w>
O x
finan ced</w>
b eln</w>
K h
unter breit
ri ere</w>
opp on
new sletter</w>
gori th
dump ing</w>
än der</w>
tra ined</w>
sa d</w>
fik ationen</w>
Wa sch
Kon su
komm ens
P ir
ze go
bo asts</w>
bed ürf
To gether</w>
K m</w>
Auswei tung</w>
ri k</w>
hal t
as set</w>
profession ellen</w>
ier ungen</w>
di ving</w>
Web -
W all</w>
Russ lands</w>
Über gang</w>
ruhi ge</w>
T E
S em
Ma x</w>
1 10</w>
rati fication</w>
Plen ar
C A</w>
ti les</w>
gemein sames</w>
desi rable</w>
Sub ject</w>
geb ühr
fe wer</w>
Män gel</w>
Met ro</w>
Kre ativ
Kat alog</w>
sü dlichen</w>
sch ritt
residen tial</w>
ol e
neighb ours</w>
fol der</w>
ein geleitet</w>
comple tion</w>
um gehen</w>
moder nis
ig a</w>
gesu cht</w>
e de</w>
b aus</w>
Tim es</w>
So wohl</w>
t u</w>
pa ths</w>
di tions</w>
P AR
N ICHT</w>
Ab fall
lo aded</w>
berich terstat
Vorder grund</w>
St art
si zes</w>
hei ght</w>
Nutz ungs
3 1.</w>
own ership</w>
bevölk erung</w>
Universi täten</w>
D amp
Bur g</w>
hot el
h un
günsti gen</w>
W and
teu er</w>
ten den
o red</w>
ä ter</w>
t dem</w>
be arbeiten</w>
Vorsitz enden</w>
Trans fer</w>
Sat z</w>
se as</w>
gewid met</w>
Grupp en
ur gency</w>
frequ ency</w>
sor ry</w>
prefer red</w>
er a
electri cal</w>
Mo dul</w>
Her zego
gi ous</w>
gewöhn lich</w>
be ach
an en</w>
H ein
woh nern</w>
sugge sts</w>
Ru f</w>
R eh
Mosco w</w>
IW F</w>
Erwachsen e</w>
B A</w>
lief erung</w>
heraus ra
fre sh
exam ination</w>
Pa y
Komple tt
B ak
Wedn esday</w>
Um strukturi
Slov akia</w>
L or
lo ck
krä ften</w>
kon zipi
hochwer tigen</w>
hi elten</w>
defin ieren</w>
be unruhi
Gre en
Be sitz</w>
ver stehe</w>
tho tel</w>
a wa
tn ess</w>
per su
hinzu gefügt</w>
gre ss
gel s</w>
Men ü
Ma in
zeich nete</w>
seg ment</w>
gere chte</w>
be cken</w>
Re al
tsch ech
mom ents</w>
in adequate</w>
enjo ying</w>
b la
Bestä tigung</w>
sol ved</w>
innov ativen</w>
I X</w>
Emp ire</w>
Be zeichnung</w>
refer ences</w>
lo go</w>
ein igt</w>
bre ath
Uni ons
occ o</w>
deser ves</w>
cro w
St ur
Souverän ität</w>
H IV</w>
G A</w>
zu gs
und ry</w>
emp ty</w>
collap se</w>
Gen au
24 .</w>
ol l</w>
fascin ating</w>
con stra
arbit r
Siem ens</w>
Ge gner</w>
mäß igen</w>
fahr ens
be zü
S P</w>
Ex peri
Ein satz
öst lichen</w>
unic ation</w>
thumb nail</w>
mi xed</w>
listen ing</w>
ir on</w>
elegan te</w>
Erfol ge</w>
z ar
year -
ro ut
land wirtschaftlichen</w>
gegeben enfalls</w>
S eries</w>
Be stell
ve z</w>
benach tei
S ens
P har
Le ague</w>
ver su
näch ster</w>
keines wegs</w>
iPo d</w>
her stellen</w>
geb ot
Spazier gang</w>
S icht
Ex port
.. ..
where by</w>
sichti g</w>
üb lichen</w>
europ a
er hoben</w>
co o
W en
Re gen
be gun</w>
Ein es</w>
C ann
under lying</w>
thir d-
Kooper ations
K ä
H of</w>
fi re
fi a</w>
erk unden</w>
K -
C r
An onymous</w>
trav ellers</w>
gri ff
Vereinig te</w>
Rechn er</w>
L AN
Immobili en</w>
rah men
m elt</w>
fre ier</w>
found ations</w>
Zwei ten</w>
Gen au</w>
C ath
aci o</w>
Kön nen</w>
D .</w>
o s
ful l-
Ren a
R it
L ohn
olog ischer</w>
nec essi
Wachst um
Lu d
Got tes</w>
v acc
sign ing</w>
C lau
repeat edly</w>
gestie gen</w>
besonder es</w>
S ab
Niederlan de</w>
ü bung</w>
k lin
escap e</w>
fin dung</w>
atem berau
In c</w>
8 4</w>
secon dary</w>
Ins gesamt</w>
Boo t</w>
journ alists</w>
erst es</w>
com pete</w>
betra cht</w>
besch ä
occup ation</w>
dramati c</w>
aus gehen</w>
Argum ent</w>
hö her
b onds</w>
Inter governmental</w>
Caf é</w>
ök ologischen</w>
verb lei
up- to-
un necessary</w>
te x</w>
su ited</w>
mit glied</w>
gefähr lich</w>
Fo ot
Ehr e</w>
ver li
thre sh
Emplo yment</w>
wa re
vol lem</w>
sozi al
Werk zeug</w>
C ô
Bla ir</w>
hilfre ich</w>
Stunden -
sa al</w>
read s</w>
l or
ht ml</w>
St ri
Exist enz</w>
in spiri
T amp
L IN
stärk sten</w>
parlament arischen</w>
par tial</w>
m s
il le</w>
Re vision</w>
3 00
hunder t</w>
exp anded</w>
W ind</w>
Energi equ
C alifor
berich tet</w>
Mon te</w>
Klas si
wel le</w>
lo ses</w>
cancell ation</w>
big ger</w>
Verk aufs
P M</w>
M E</w>
wür digen</w>
cook ies</w>
consider ations</w>
An betracht</w>
1 30</w>
ver öffentlichen</w>
so ever</w>
men tierung</w>
kur se</w>
au p
an gehen</w>
gi ge</w>
Nichtraucher zimmer</w>
umfas sen</w>
scri p
offizi ell</w>
econom ically</w>
M ig
intensi v</w>
comm it</w>
auslän dischen</w>
Im peri
si x
ob serve</w>
li v
i ds</w>
gleich heit</w>
Sever al</w>
Ph ysi
zw öl
li ty</w>
é n
ti a</w>
Sch ne
Sch alt
In genie
Aus blick</w>
splen did</w>
lo sing</w>
er leb
d oppel
h ence</w>
W ord
Proz eß</w>
Mini stry</w>
viol ation</w>
effizi enter</w>
Se kunden</w>
Sa int-
-- --
größ ter</w>
geb ene</w>
compar able</w>
Stabili täts
Effe kt</w>
198 6</w>
eh lt</w>
be fu
T A</w>
Qu ell
Komment are</w>
Fisher ies</w>
F assung</w>
instru mente</w>
höch st</w>
ft -
for war
bu g</w>
Mo dus</w>
Ge wäs
verbreit et</w>
r ent
p lo
cop e</w>
O LAF</w>
we d
princip al</w>
betei ligten</w>
N izza</w>
zu fügen</w>
v ary</w>
kon sequent</w>
gegen über
Vene zu
Gemein schaft
For ts
er wiesen</w>
Intern al</w>
lö schen</w>
d än
Publik um</w>
Montene gro</w>
Entsch lossenheit</w>
Ab lauf</w>
kö mm
character istic</w>
Kon vent</w>
timet able</w>
spor t
schwe dischen</w>
inst antly</w>
ear ning</w>
K au
Anmerk ungen</w>
thor ough</w>
mittel alter
elektron ische</w>
bab y</w>
S un</w>
Düssel dorf</w>
coast al</w>
Prof .</w>
s é</w>
fl uss
en burg</w>
e ters</w>
L eben
G as</w>
schaf tlich</w>
represent ing</w>
aus wählen</w>
Kop f
Kol le
wick lung</w>
st ently</w>
gemü tliche</w>
Demok raten</w>
li vely</w>
fal se</w>
Zei tsch
St an
Rei ch
Geb i
regi onen</w>
genu inely</w>
with draw</w>
design er</w>
s essions</w>
proz eß</w>
exam ined</w>
N ation</w>
M igration</w>
Cor poration</w>
An tri
reib ungen</w>
j ing</w>
E valu
Chi ef</w>
miet ung</w>
günsti g</w>
gener ell</w>
deb ating</w>
L om
Kompet enzen</w>
Geb ühren</w>
E del
C l
un zäh
existi eren</w>
erh eben</w>
car te</w>
an gle</w>
Fil ter</w>
pak et</w>
ge fühl</w>
b and
att ack
Verbrau chern</w>
st ein
sm art</w>
K DE</w>
Ar ti
gele gene</w>
Qu ark</w>
Er reichung</w>
stra tions</w>
le tte</w>
inform al</w>
i dy
gi ft</w>
f at
Elec tron
tex tile</w>
purch ased</w>
op tional</w>
ci ón</w>
an ten
Rechn ungs
Origin al
tä tigen</w>
mög lichkeit</w>
fortun ate</w>
bü rokrati
Mar co</w>
L ot
Kno w-how</w>
Aspe kten</w>
betri ebe</w>
P atten</w>
integri erte</w>
gere cht
bedro ht</w>
ad -
Ko re
H ör
Be kann
th ei
stan des</w>
iz ing</w>
Pra g</w>
schrift liche</w>
re ment</w>
op enness</w>
grenzüberschreit enden</w>
Mo dern</w>
Lev el</w>
slo pes</w>
ag o
Pflan zen
Aus rüstung</w>
wid men</w>
lo ans</w>
Wahr schein
Al ps</w>
zi pl
vertrau t</w>
her bei
comm odi
Eigent ü
п о
spee ches</w>
feat uring</w>
dele te</w>
aut umn</w>
Rati fizierung</w>
Ev ent</w>
s ample</w>
bl ind</w>
Vermö gens
Heim at</w>
Be stellungen</w>
toler ance</w>
inten tions</w>
fore most</w>
fall ing</w>
C anc
Br ut
sch ar
over -
Pal ette</w>
Lehr er</w>
op ho
medi terran
Sach ver
sou l</w>
klein ere</w>
T V
Stor age</w>
w th</w>
appar ent</w>
adul t</w>
L oo
Log is
spec trum</w>
qu est</w>
i ran
St ahl
Be vor</w>
rie b</w>
ge statten</w>
cont am
bewu ßt</w>
Wel th
Up dates</w>
li gence</w>
Ti ckets</w>
ho hes</w>
ge ous</w>
altern atives</w>
Sol ar
R ennen</w>
Stell en
Risi ko
frü h</w>
em it
ah e</w>
aff ili
W ett
w ehr
hor se</w>
arab ischen</w>
ac o</w>
Clu bs</w>
19 45</w>
u zzi</w>
sac ri
pap ers</w>
kosten losen</w>
genau er</w>
f ell</w>
access ories</w>
Aut or</w>
wei chen</w>
we l</w>
sub sequently</w>
simultane ously</w>
re ih
haf ter</w>
bewe gt</w>
Ru ß
tsp rin
strö m</w>
Venedi g</w>
S ource</w>
I deal</w>
zei gte</w>
stri ke</w>
expres s
Br ücke</w>
r is</w>
ide ally</w>
all o</w>
Qu i
eth ical</w>
des ktop</w>
Ash ton</w>
sun ny</w>
mo reover</w>
dest inations</w>
Behör de</w>
fri end
d rit
compla ints</w>
accu racy</w>
La den</w>
co decision</w>
W -
Sy mb
Ab teilung</w>
wa i
k et</w>
erwer ben</w>
bei behalten</w>
S por
Mor occo</w>
Hist ory</w>
Bet ro
ähn lichen</w>
manufac tured</w>
lan gem</w>
den d</w>
Sup er</w>
K eine</w>
n esses</w>
aff ord</w>
überra scht</w>
ver la
ser ie</w>
eill ance</w>
destro y</w>
afford able</w>
Vor rang</w>
Er schein
schwer wie
finanzi erung</w>
bran ch</w>
Gre ens</w>
s the
po sts</w>
lo gic</w>
at ri
respec ts</w>
o x
ei gn
cal endar</w>
V al</w>
N G</w>
Kon vention</w>
Fl ori
Austra lien</w>
2 2.</w>
W eine</w>
Stei gerung</w>
Statisti ken</w>
Sch ad
B ER
exp enses</w>
Slowak ei</w>
Gemein den</w>
vie wing</w>
ver mittelt</w>
é r
zu geben</w>
terri ble</w>
mechan ical</w>
de voted</w>
Sol daten</w>
Durch setzung</w>
Ant oni
um gehend</w>
ter a</w>
ge treten</w>
fal sche</w>
b its</w>
W ä
Un s</w>
Fest platte</w>
öffent licher</w>
rec ru
re au</w>
meas urement</w>
geb nisse</w>
dru ckt</w>
anträ ge</w>
UR L</w>
Ratsvor sitz
Mal ay
unterschie dlicher</w>
unterschie d
D S</w>
Col om
7 ,
posi tion
Klar heit</w>
excur sions</w>
en cryp
spo ts</w>
co very</w>
U K
sol ch</w>
Wich tigkeit</w>
WT O-
Sch il
Mit tw
н а
st ür
R un
Betri eb
Autom ati
der art</w>
chem ische</w>
arran gement</w>
5- 00
th es</w>
Hä fen</w>
Ar ts</w>
guarante eing</w>
co st-
Aus richtung</w>
zer o</w>
ri ert</w>
der -
accord ingly</w>
Ur sache</w>
Schicks al</w>
vent ure</w>
t onn
gew ach
funktion ier
fun ktionen</w>
fahr zeuge</w>
zwei tens</w>
sen sib
ko rea</w>
her e
S po
Kenn tnisse</w>
F ür
zwei ter</w>
zah ler</w>
surv ey</w>
gr and</w>
er teilen</w>
behaup tet</w>
Vil lage</w>
Schul z</w>
K ein</w>
Ha iti</w>
7 9</w>
ñ a</w>
wach sende</w>
g on
f ter</w>
e a</w>
clar ity</w>
ad ministr
um es</w>
import antly</w>
Y outh</w>
Min er
voc ational</w>
verur teilen</w>
be wegung</w>
Garanti en</w>
Dynam ik</w>
ti ps</w>
O therwise</w>
Gro wth</w>
For mul
geschnit ten</w>
dies bezü
condem n</w>
b ak
ab en</w>
Palestini ans</w>
La y
198 7</w>
Äu ßer
tri bute</w>
sp annen</w>
gu es</w>
com posed</w>
anzu wenden</w>
L T</w>
198 5</w>
ü stet</w>
auth ors</w>
Werk zeuge</w>
Vor gehensweise</w>
Mar ok
L ager</w>
sch wan
pharmac eu
ger ingen</w>
flexi bel</w>
cust om</w>
continu ously</w>
motor way</w>
jähr lichen</w>
d den
d al
answer ed</w>
T ali
Sec tion</w>
S ports</w>
S cre
Li brary</w>
Ex port</w>
A ch
sp anische</w>
sch alten</w>
komb iniert</w>
inspec tion</w>
Se ele</w>
Sch ot
Au dio</w>
reib ungs
re lief</w>
la di
Volk spartei</w>
Plätz e</w>
trage dy</w>
re sidents</w>
pre served</w>
join tly</w>
Nordi c</w>
ark o
L ap
trans action</w>
lo se
inclu sive</w>
for gotten</w>
es o</w>
W ie
T ak
Pro gram</w>
F I</w>
wh at
an cy</w>
Sch le
Mittelme er</w>
Her kunfts
rev ised</w>
ref used</w>
hel l</w>
angebo te</w>
all ed</w>
Y O
k e-
ch eck-
cen ters</w>
al leg
tra gic</w>
termin al</w>
pos ure</w>
aktu alisiert</w>
sch wä
Kommissionsprä sident</w>
zi erten</w>
gebäu de</w>
H ände</w>
En ts
viol ent</w>
komple xe</w>
bewer tet</w>
Sol ana</w>
S pre
Latein amerika</w>
F leisch</w>
consi sten
ä der</w>
verur sachen</w>
e -</w>
di eren</w>
Im mer</w>
Ber gen</w>
sen der</w>
sc and
beabsichti gt</w>
af raid</w>
Forts etzung</w>
Ferienwoh nungen</w>
v .</w>
sc ar
op pose</w>
con s</w>
Mensch heit</w>
ver tritt</w>
pa in</w>
fif th</w>
bu ying</w>
be weisen</w>
Ver sand
Ste ph
M ir
Fel der</w>
Di esen</w>
gehöri ge</w>
anzu passen</w>
Willi am</w>
St rom</w>
Sow jet
SD L</w>
Partner ship</w>
Ira q
G O</w>
Entwicklungs hilfe</w>
umfangreich en</w>
l assung</w>
bli cken</w>
Gar ten
F C</w>
Bet reiber</w>
stopp ed</w>
inn eren</w>
certi fication</w>
bro ader</w>
Zuverlässi gkeit</w>
Ver sprechen</w>
- und</w>
wid th</w>
mar gin
il es</w>
behavi or</w>
befür worten</w>
Welt krieg</w>
B un
ori entation</w>
juris diction</w>
her ausge
y- to-
gemü tlichen</w>
Tie f
tig keits
ent ary</w>
av a</w>
ausgestat tete</w>
Ereig nis</w>
kap az
erheb lichen</w>
Wün schen</w>
In halten</w>
er arbeitet</w>
bi om
ar gue</w>
Kür ze</w>
Sch reib
Aus sagen</w>
e ure</w>
doub ts</w>
cei ling</w>
Zimmer beschreibung</w>
W ater</w>
H alle</w>
Franc isco</w>
fi x
dead line</w>
G AP</w>
techn isch</w>
symbo li
promot ed</w>
poten ti
kt or
eri ert</w>
assur ance</w>
Weiter hin</w>
Servi ce
Rein igung</w>
Li by
än ge</w>
trau m
ig ungen</w>
Cop yright</w>
kön ne</w>
komple xen</w>
Klima wand
Ex ternal</w>
Do cum
zus agen</w>
k u</w>
begeg nen</w>
Te ch</w>
R y
He ads</w>
o li
bu cht</w>
S K</w>
siden tin</w>
rela xed</w>
niedri gen</w>
ari b
Off enheit</w>
Einzel heiten</w>
Altern ativen</w>
typ isch</w>
statt gefunden</w>
commer ce</w>
tre as
g ingen</w>
g are
Kenn zeichnung</w>
J ean</w>
Haushal ts</w>
E-Mail- Adresse</w>
no body</w>
er schi
Bet rach
23 .</w>
fin ds</w>
Sou thern</w>
Problemati k</w>
K rie
zentr aler</w>
harmon isi
fer tigung</w>
br ands</w>
a sis</w>
in sul
St au
zu stande</w>
s culp
l ings</w>
hon est</w>
ge ehrte</w>
M ischung</w>
J ag
Com ple
н и
to wer</w>
präz ise</w>
en gen</w>
be fin
ad d
Sei ten
woh nt</w>
publi sh</w>
k it</w>
ch at</w>
affec ting</w>
ständi ger</w>
schutz es</w>
respe ktieren</w>
form ular</w>
Trag ö
S ex
K G</w>
per pet
n ehmen
arbei teten</w>
terra sse</w>
sichti gen</w>
klär t</w>
klär en</w>
for tsch
foc uses</w>
Z wan
Ge sicht</w>
Chanc en
t .
sa ke</w>
pel ine</w>
nö tigen</w>
angekün digt</w>
Sü do
Liefer anten</w>
u xe</w>
le ger</w>
l enst
Zu cker
Ver län
vi able</w>
ver e</w>
trop ical</w>
se bene</w>
re servi
forts etzen</w>
deut liche</w>
Ver heu
uneingeschrän kt</w>
short- term</w>
m äh
hol der</w>
gen ös
foc using</w>
de cl
ch ur
aus wirken</w>
Inte gri
Bet racht</w>
р е
kun de</w>
inn ere</w>
erleich tert</w>
dam ali
b icy
Nach druck</w>
NE W</w>
H ans</w>
ster ing</w>
spek ta
h em
do g</w>
con version</w>
Bau ern
tr in
sch lu
republi k</w>
elegan ten</w>
da vor</w>
belon gs</w>
wär tige</w>
region aler</w>
elec toral</w>
agem ent
Dokum ent
Comm erce</w>
Beschrän kungen</w>
Aus be
f ungen</w>
Netz e</w>
Lab our</w>
J an</w>
Bewus stsein</w>
w unden</w>
person en</w>
li est</w>
k et
EG -
sign als</w>
remo val</w>
modi fy</w>
hin e</w>
S L</w>
Finn ish</w>
Califor nia</w>
pen sions</w>
k new</w>
ish ment</w>
ven tive</w>
quanti ty</w>
Rei cht
B A
stand ardi
res cu
rene wed</w>
gem essen</w>
atten ded</w>
Rech en
health care</w>
ge startet</w>
f lich</w>
drän gt</w>
Zu rich</w>
t ung
t one</w>
spür en</w>
ru fe</w>
medizin ische</w>
jün gste</w>
ar range</w>
whe el</w>
vertrau en</w>
so genannte</w>
ein iges</w>
d ing
up-to- date</w>
rus sische</w>
ess ing</w>
T uni
Sch ö
Gesetz geb
with draw
visi ts</w>
s -</w>
c ommission
P hil
é ri
vor liegt</w>
veran k
lin ing</w>
der selben</w>
Wik ic
ver mutlich</w>
dimen sions</w>
ar tik
wir ft</w>
di an</w>
Zeit plan</w>
Par li
Geb ir
uni vers
tel n</w>
ref use</w>
ing ent</w>
di en</w>
bu l</w>
S ah
te stelle</w>
gi pf
Verheu gen</w>
Ori enti
Mon te
stres sed</w>
rec all</w>
publi shing</w>
f in</w>
er ische</w>
S zen
Inn er
sch ür
mm ing
kü ste</w>
confi g
cho se</w>
Kl ing
Gu te</w>
F ans</w>
Bau ern</w>
prospec t</w>
integri ty</w>
il en</w>
fe a
cam eras</w>
Ziel setzungen</w>
österreich ischen</w>
sche dule</w>
pro gressive</w>
kur zer</w>
install ations</w>
endgül tige</w>
cat ors</w>
D oh
Archit e
öh ne</w>
st ops</w>
re ci
p ack</w>
geneh mi
ci o</w>
autom otive</w>
Spec i
Ministerprä sident</w>
transi tional</w>
ed y</w>
conver t</w>
ali se</w>
Er öffnung</w>
AC H</w>
telef on
is ode</w>
gi eren</w>
Wahr ung</w>
Emp fang</w>
organ ize</w>
ju dge</w>
fam il
clo sing</w>
adv ise</w>
Origin al</w>
C lim
wunder schöne</w>
ut en
er vice</w>
Vo y
For d</w>
E .
Con tact</w>
re alisiert</w>
fasz ini
fa ire</w>
emp fängt</w>
N et</w>
Bau m
Über sicht</w>
what soever</w>
rupp e</w>
pro vo
privileg ed</w>
mis sed</w>
getrenn t</w>
express ly</w>
Minder heit</w>
M illion</w>
v ine
sti l</w>
rl pool</w>
monum ents</w>
fur b
basi cally</w>
30 -
t ability</w>
e fully</w>
In kraft
F R
Blo ck
mi ß
f ab
decl are</w>
angeneh me</w>
Sü dafrika</w>
Protok olls</w>
Der zeit</w>
Col le
Über nahme</w>
resear chers</w>
offici ally</w>
deser ve</w>
adjust ment</w>
politi ken</w>
pain ting</w>
ba g</w>
Schn ell
P ast
z immern</w>
ub s</w>
min i</w>
tatsäch lichen</w>
le i</w>
fair en</w>
environment ally</w>
cat alogue</w>
Aus nahmen</w>
verbin dungen</w>
u e
ti e</w>
su res</w>
plan e</w>
ke wise</w>
er weisen</w>
Sk i</w>
Galile o</w>
24- Stunden-
le gen
en es</w>
eman den</w>
Haf en
G on
Frei zeit
leben den</w>
Lebensmittel sicherheit</w>
C in
ver wiesen</w>
typ ically</w>
moder ner</w>
ga u</w>
bir d</w>
an erkan
P is
G PS</w>
Г ј
thor ou
intelli gen
St rei
Mas sage</w>
nicht -
gro und
Sch mi
Sch ie
Nach mittag</w>
Betri fft</w>
presiden tial</w>
ali t
Mei ster
Georgi en</w>
G y
197 0</w>
her um</w>
I stan
Al ters
unterbro chen</w>
po sted</w>
tik er</w>
te stens</w>
erwäh nten</w>
dri ves</w>
Represent ative</w>
tra ins</w>
o date</w>
del ays</w>
certific ate</w>
Tari fa</w>
Syri en</w>
w ol
so for
erforder liche</w>
du stri
authori zed</w>
Produ ktivität</w>
M s</w>
Koh len
ra tional</w>
occup ied</w>
exhi bitions</w>
credi ble</w>
S S</w>
Or der</w>
I ON
Colo gne</w>
B rau
erstre ckt</w>
drän gen</w>
con i</w>
an erkennen</w>
Zerti fik
Olymp ic</w>
Er arbeitung</w>
pas sion</w>
neighbour hood</w>
EI B</w>
ger inger</w>
begrün det</w>
Th y
techn ischer</w>
soldi ers</w>
ograf ie</w>
un certainty</w>
genie ßt</w>
verz ichten</w>
form uliert</w>
ens hip</w>
ann ehm
al ar
T aten</w>
Hän den</w>
promis ing</w>
ob servation</w>
kompli ziert</w>
GU E</w>
G ame</w>
tic a</w>
at -
Kreu z
sta b</w>
popul ations</w>
Gro ßen</w>
General sekre
Ent schä
Chancen gleichheit</w>
C e
th ic</w>
gerech net</w>
ar rest</w>
ann i</w>
Land wirtschafts
I ron
min es</w>
komfort ablen</w>
ein st</w>
Ver fahrens
wh enever</w>
tion -
ori sten</w>
oni al</w>
ol en</w>
newsp aper</w>
kun den
an passen</w>
Il lu
zu gestimmt</w>
mo vies</w>
interess anten</w>
beg ünsti
be zeichnen</w>
absur d</w>
L aut</w>
vor sieht</w>
pro menade</w>
mit ting</w>
geeig neten</w>
mechanis men</w>
gn a</w>
du ration</w>
amb igu
Zerst örung</w>
Dro gen</w>
y ang</w>
preci sion</w>
pat tern</w>
ign ore</w>
gu il
fi ehlt</w>
H our</w>
Fisch ler</w>
verabschie den</w>
soverei gn</w>
religi ösen</w>
m ig
li on</w>
ic on</w>
frei ght</w>
ursprün gliche</w>
ten sion</w>
geb ühren</w>
c rop
ac tor</w>
zur zeit</w>
wh el
consul tan
bene ficial</w>
achie vements</w>
Her kunft</w>
pp s</w>
fel der</w>
Re f</w>
Kar l
Bu reau</w>
tari at</w>
proxim ity</w>
kri terien</w>
klim ati
Mil an</w>
emerg ed</w>
be ef</w>
Li b
verein t</w>
musi kali
frequ ent</w>
auslän dische</w>
alisi erungs
ag nen</w>
Sel ect</w>
H OT
For ce</w>
Buch stab
neut ral</w>
Mac ed
Ju gosla
sand y</w>
surv eillance</w>
m men</w>
gel ernt</w>
Rück gang</w>
Kur z</w>
In clu
über mitteln</w>
rele ases</w>
mis es</w>
lei chte</w>
er arbeiten</w>
auf nahme</w>
C lar
Ab bau</w>
troub le</w>
pat ri
geschm ack
Ge sichtsp
F ang
ti gh
S et
Re gar
Every thing</w>
Bürokrati e</w>
s ein
du plic
Sol utions</w>
Langu age</w>
un usual</w>
ne m</w>
explic itly</w>
IB M</w>
Dig ital
Auf hebung</w>
Ad van
rati o</w>
herr schen</w>
dres s</w>
b les</w>
Pri ze</w>
thi op
schen ken</w>
regre t
W .</w>
Gewin n</w>
ökonom ische</w>
sa iling</w>
en to</w>
arbei ter</w>
I bi
I A
Def ence</w>
liter ature</w>
fe edback</w>
er öffnen</w>
archi ve</w>
S U
Privat sphäre</w>
F isch</w>
C o</w>
th row</w>
preci ous</w>
plan ung</w>
hi re</w>
gewünsch te</w>
emplo yers</w>
ab gesehen</w>
sen sor</w>
hand els
eri en</w>
el det</w>
diesel ben</w>
Un til</w>
Inde x</w>
ver arbeitet</w>
taus end</w>
machin ery</w>
hör t</w>
de teri
bein ahe</w>
Zun ahme</w>
Flücht ling
Auff or
suspen ded</w>
sicher er</w>
presti gious</w>
pl ätzen</w>
n ament</w>
h är
fit ted</w>
wahr e</w>
tel s</w>
prin zip</w>
n ur
institu te</w>
ge habt</w>
boo k
Nichtraucher zonen</w>
Mittw och</w>
par ameter</w>
mark tes</w>
kn ü
Ver fahrens</w>
T P</w>
L un
mei ster
fu hren</w>
distinc tion</w>
Mini bar</w>
Liber alen</w>
zi erte</w>
geh e</w>
cancell ed</w>
be stände</w>
an forderungen</w>
1 40</w>
mark ing</w>
log istics</w>
gran ting</w>
ec ks</w>
Inte gra
ü ssen</w>
G P</w>
Bei jing</w>
Au dio
re tail</w>
identi fication</w>
Wieder herstellung</w>
oblig ator
medizin ischen</w>
kri tischen</w>
koh är
ex qui
Ver ordnungen</w>
Lt d</w>
4 00
zeich neten</w>
ssi er</w>
läu fe</w>
fl ying</w>
Terr oristen</w>
Tab elle</w>
Ro s
Klimawand els</w>
Ameri kas</w>
versch affen</w>
concer ts</w>
b ac
angen ommenen</w>
G ut</w>
zu gelassen</w>
ma ps</w>
kre di
est a</w>
an ges
Stra sse</w>
S av
w öch
um so</w>
toi let</w>
taxpa yers</w>
premi um</w>
post al</w>
mechan ismus</w>
Ar c
diesel be</w>
ci ally</w>
inter active</w>
eigent liche</w>
chem icals</w>
Exper im
ver arbeitung</w>
da hin</w>
F li
verm ieden</w>
ens er</w>
deb ated</w>
1, 5</w>
g lichkeit</w>
defic its</w>
Tamp ere</w>
K lin
spekta kul
relev anten</w>
ra cle</w>
prepar ations</w>
orienti erte</w>
b lieb</w>
M ar</w>
EU RO
metho de</w>
geb au
announ ce</w>
Anrei ze</w>
äum e</w>
fahr ts
S ac
Argent ina</w>
th alten</w>
territ ories</w>
rul ing</w>
pl ant
ne x</w>
Wettbewer bs</w>
The orie</w>
S ri</w>
Hän dler</w>
Er halt</w>
fest e</w>
ver teilung</w>
ti s
prev ented</w>
negoti ated</w>
gemein samer</w>
eindeu tige</w>
Um stände</w>
Non -S
Fahr zeug</w>
EN T
under take</w>
höch ster</w>
gres sion</w>
Z ahn
Ro th
Freih andels
Doh a</w>
tau chen</w>
subscri be</w>
rec ession</w>
ger inge</w>
das selbe</w>
Ver abschie
Formu lierung</w>
ti sches</w>
refle ction</w>
over whel
integri eren</w>
academ ic</w>
Thir d</w>
[...]
